<pad>	0
<s>	0
</s>	0
<unk>	0
<0x00>	0
<0x01>	0
<0x02>	0
<0x03>	0
<0x04>	0
<0x05>	0
<0x06>	0
<0x07>	0
<0x08>	0
<0x09>	0
<0x0A>	0
<0x0B>	0
<0x0C>	0
<0x0D>	0
<0x0E>	0
<0x0F>	0
<0x10>	0
<0x11>	0
<0x12>	0
<0x13>	0
<0x14>	0
<0x15>	0
<0x16>	0
<0x17>	0
<0x18>	0
<0x19>	0
<0x1A>	0
<0x1B>	0
<0x1C>	0
<0x1D>	0
<0x1E>	0
<0x1F>	0
<0x20>	0
<0x21>	0
<0x22>	0
<0x23>	0
<0x24>	0
<0x25>	0
<0x26>	0
<0x27>	0
<0x28>	0
<0x29>	0
<0x2A>	0
<0x2B>	0
<0x2C>	0
<0x2D>	0
<0x2E>	0
<0x2F>	0
<0x30>	0
<0x31>	0
<0x32>	0
<0x33>	0
<0x34>	0
<0x35>	0
<0x36>	0
<0x37>	0
<0x38>	0
<0x39>	0
<0x3A>	0
<0x3B>	0
<0x3C>	0
<0x3D>	0
<0x3E>	0
<0x3F>	0
<0x40>	0
<0x41>	0
<0x42>	0
<0x43>	0
<0x44>	0
<0x45>	0
<0x46>	0
<0x47>	0
<0x48>	0
<0x49>	0
<0x4A>	0
<0x4B>	0
<0x4C>	0
<0x4D>	0
<0x4E>	0
<0x4F>	0
<0x50>	0
<0x51>	0
<0x52>	0
<0x53>	0
<0x54>	0
<0x55>	0
<0x56>	0
<0x57>	0
<0x58>	0
<0x59>	0
<0x5A>	0
<0x5B>	0
<0x5C>	0
<0x5D>	0
<0x5E>	0
<0x5F>	0
<0x60>	0
<0x61>	0
<0x62>	0
<0x63>	0
<0x64>	0
<0x65>	0
<0x66>	0
<0x67>	0
<0x68>	0
<0x69>	0
<0x6A>	0
<0x6B>	0
<0x6C>	0
<0x6D>	0
<0x6E>	0
<0x6F>	0
<0x70>	0
<0x71>	0
<0x72>	0
<0x73>	0
<0x74>	0
<0x75>	0
<0x76>	0
<0x77>	0
<0x78>	0
<0x79>	0
<0x7A>	0
<0x7B>	0
<0x7C>	0
<0x7D>	0
<0x7E>	0
<0x7F>	0
<0x80>	0
<0x81>	0
<0x82>	0
<0x83>	0
<0x84>	0
<0x85>	0
<0x86>	0
<0x87>	0
<0x88>	0
<0x89>	0
<0x8A>	0
<0x8B>	0
<0x8C>	0
<0x8D>	0
<0x8E>	0
<0x8F>	0
<0x90>	0
<0x91>	0
<0x92>	0
<0x93>	0
<0x94>	0
<0x95>	0
<0x96>	0
<0x97>	0
<0x98>	0
<0x99>	0
<0x9A>	0
<0x9B>	0
<0x9C>	0
<0x9D>	0
<0x9E>	0
<0x9F>	0
<0xA0>	0
<0xA1>	0
<0xA2>	0
<0xA3>	0
<0xA4>	0
<0xA5>	0
<0xA6>	0
<0xA7>	0
<0xA8>	0
<0xA9>	0
<0xAA>	0
<0xAB>	0
<0xAC>	0
<0xAD>	0
<0xAE>	0
<0xAF>	0
<0xB0>	0
<0xB1>	0
<0xB2>	0
<0xB3>	0
<0xB4>	0
<0xB5>	0
<0xB6>	0
<0xB7>	0
<0xB8>	0
<0xB9>	0
<0xBA>	0
<0xBB>	0
<0xBC>	0
<0xBD>	0
<0xBE>	0
<0xBF>	0
<0xC0>	0
<0xC1>	0
<0xC2>	0
<0xC3>	0
<0xC4>	0
<0xC5>	0
<0xC6>	0
<0xC7>	0
<0xC8>	0
<0xC9>	0
<0xCA>	0
<0xCB>	0
<0xCC>	0
<0xCD>	0
<0xCE>	0
<0xCF>	0
<0xD0>	0
<0xD1>	0
<0xD2>	0
<0xD3>	0
<0xD4>	0
<0xD5>	0
<0xD6>	0
<0xD7>	0
<0xD8>	0
<0xD9>	0
<0xDA>	0
<0xDB>	0
<0xDC>	0
<0xDD>	0
<0xDE>	0
<0xDF>	0
<0xE0>	0
<0xE1>	0
<0xE2>	0
<0xE3>	0
<0xE4>	0
<0xE5>	0
<0xE6>	0
<0xE7>	0
<0xE8>	0
<0xE9>	0
<0xEA>	0
<0xEB>	0
<0xEC>	0
<0xED>	0
<0xEE>	0
<0xEF>	0
<0xF0>	0
<0xF1>	0
<0xF2>	0
<0xF3>	0
<0xF4>	0
<0xF5>	0
<0xF6>	0
<0xF7>	0
<0xF8>	0
<0xF9>	0
<0xFA>	0
<0xFB>	0
<0xFC>	0
<0xFD>	0
<0xFE>	0
<0xFF>	0
.	-2.77919
s	-3.13078
▁the	-3.34774
,	-3.8088
▁of	-3.97275
▁and	-4.18252
▁a	-4.2295
▁in	-4.23647
▁The	-4.3178
▁is	-4.32181
▁to	-4.40542
▁was	-4.53784
▁	-4.62684
ed	-4.94979
ing	-4.99308
'	-5.14821
-	-5.19549
▁for	-5.20654
▁He	-5.23194
▁"	-5.26183
▁are	-5.31706
d	-5.35709
t	-5.39019
▁It	-5.44962
▁by	-5.45407
▁on	-5.50729
▁with	-5.55185
ly	-5.55626
▁also	-5.56307
e	-5.63231
▁as	-5.64237
▁be	-5.64315
"	-5.6679
y	-5.68379
▁his	-5.70285
n	-5.71661
er	-5.78478
▁A	-5.85318
▁were	-5.87673
▁at	-5.88728
▁has	-5.89891
▁from	-5.94045
al	-6.01163
▁an	-6.01269
▁that	-6.0228
▁he	-6.07938
▁I	-6.13078
▁it	-6.19785
▁This	-6.23042
▁have	-6.25502
▁this	-6.27187
es	-6.29055
▁not	-6.31163
r	-6.32477
".	-6.34203
▁In	-6.36847
▁She	-6.39443
p	-6.42554
l	-6.44096
▁two	-6.49142
▁had	-6.49359
o	-6.49984
in	-6.55648
▁one	-6.57943
▁her	-6.58282
▁been	-6.59095
▁or	-6.60855
a	-6.64151
m	-6.65311
re	-6.6592
i	-6.66191
▁can	-6.66668
c	-6.70842
▁They	-6.72989
▁first	-6.74139
g	-6.78843
▁their	-6.80089
▁its	-6.83144
▁There	-6.88808
ic	-6.90447
▁His	-6.90524
ar	-6.93788
▁used	-6.94457
▁other	-6.94557
le	-6.95394
▁time	-6.95476
on	-6.99623
▁re	-6.99651
▁all	-7.00396
▁into	-7.02047
▁after	-7.02129
▁most	-7.05769
▁later	-7.05787
▁three	-7.0594
st	-7.06466
k	-7.06718
▁you	-7.07002
th	-7.07125
u	-7.08083
ers	-7.08837
▁but	-7.09707
▁known	-7.10307
▁no	-7.10556
ion	-7.11252
ra	-7.11312
an	-7.12361
▁E	-7.12936
?	-7.13264
▁him	-7.13711
or	-7.13985
ation	-7.15992
▁name	-7.1828
ro	-7.19737
en	-7.20027
▁up	-7.21684
b	-7.21748
f	-7.22137
▁many	-7.2227
man	-7.22372
il	-7.22376
▁out	-7.22799
el	-7.23127
ir	-7.23915
us	-7.24127
▁some	-7.25424
te	-7.25909
ch	-7.26211
▁she	-7.26613
▁born	-7.27311
▁more	-7.28059
ton	-7.28179
ur	-7.29468
▁they	-7.29711
▁New	-7.30034
▁only	-7.31186
came	-7.3123
▁located	-7.32439
▁town	-7.33137
ne	-7.33274
▁part	-7.33337
▁named	-7.33476
▁S	-7.33597
ll	-7.34467
▁which	-7.34737
▁several	-7.3595
▁years	-7.37281
▁these	-7.37503
li	-7.3801
▁over	-7.38124
▁un	-7.38515
▁These	-7.38516
▁new	-7.38852
▁would	-7.398
to	-7.40048
▁then	-7.40084
ve	-7.41925
▁area	-7.42611
na	-7.4311
ta	-7.43274
▁called	-7.44074
▁However	-7.45029
ri	-7.45438
▁there	-7.4712
▁made	-7.47336
▁School	-7.47403
▁work	-7.47991
it	-7.48286
▁now	-7.49139
▁may	-7.49489
▁year	-7.49861
!	-7.51338
▁school	-7.51599
h	-7.52084
ia	-7.52486
▁during	-7.52695
▁will	-7.52697
de	-7.52855
la	-7.53253
▁under	-7.5348
▁University	-7.54277
ist	-7.551
able	-7.55435
▁who	-7.55988
▁four	-7.5635
w	-7.56406
um	-7.57413
ce	-7.58365
ity	-7.5863
▁about	-7.58632
▁de	-7.58768
▁through	-7.58772
▁album	-7.58789
▁both	-7.58958
▁All	-7.59045
is	-7.60237
▁me	-7.60285
▁very	-7.60742
▁well	-7.60899
▁Re	-7.61018
ry	-7.61242
ma	-7.61845
▁played	-7.61903
▁do	-7.61911
▁city	-7.62347
son	-7.62712
et	-7.64223
x	-7.64689
sh	-7.64742
▁main	-7.64912
▁After	-7.65281
ive	-7.65825
▁home	-7.66294
lo	-7.67438
id	-7.68983
z	-7.69354
▁man	-7.70253
ent	-7.71392
▁use	-7.72014
▁often	-7.72509
▁We	-7.73194
▁O	-7.73375
▁found	-7.73447
▁For	-7.73551
▁them	-7.74193
▁film	-7.74215
ine	-7.74319
▁children	-7.74454
at	-7.74478
ant	-7.74741
▁served	-7.74802
▁people	-7.75354
ck	-7.7566
▁include	-7.76212
▁between	-7.7688
▁Some	-7.77117
ter	-7.77477
ian	-7.77601
ie	-7.77987
se	-7.78097
▁C	-7.78772
▁co	-7.78835
▁De	-7.78904
▁Her	-7.79073
▁second	-7.79181
▁same	-7.79375
▁At	-7.79481
▁family	-7.79528
▁did	-7.79672
ge	-7.80162
▁station	-7.80326
tic	-7.80609
▁music	-7.82438
▁Ma	-7.82597
▁than	-7.82632
▁number	-7.82894
▁when	-7.82942
▁so	-7.83351
▁Le	-7.84306
▁game	-7.84545
▁said	-7.84545
▁small	-7.84571
▁such	-7.85063
▁local	-7.86001
mo	-7.8634
The	-7.86515
▁large	-7.86662
▁team	-7.87093
ach	-7.87221
age	-7.87591
me	-7.88072
▁still	-7.88093
▁T	-7.88334
▁An	-7.88731
▁son	-7.89355
▁group	-7.89751
ul	-7.90228
▁different	-7.90358
▁B	-7.90632
ies	-7.90721
▁five	-7.91165
▁F	-7.91249
▁To	-7.91541
mp	-7.91767
▁R	-7.92107
ni	-7.92264
vi	-7.93034
ci	-7.9319
▁back	-7.93671
est	-7.93856
ate	-7.9395
▁end	-7.94218
ty	-7.94435
▁near	-7.94445
▁village	-7.94484
▁Co	-7.94546
▁Al	-7.94966
ha	-7.95206
land	-7.95305
▁One	-7.95461
▁p	-7.96083
ga	-7.96279
ley	-7.96495
’	-7.96571
▁As	-7.96642
▁band	-7.96694
▁water	-7.97469
ol	-7.97712
▁County	-7.98061
co	-7.98102
ment	-7.9823
▁show	-7.98394
▁before	-7.986
▁my	-7.98618
ke	-7.98895
▁married	-7.98983
▁each	-7.99017
▁Ro	-7.99077
am	-8.01103
▁long	-8.01134
▁like	-8.0128
▁United	-8.01349
▁father	-8.0175
be	-8.02158
▁song	-8.02283
ism	-8.02592
▁high	-8.02739
▁last	-8.02741
▁system	-8.02994
▁never	-8.03094
▁Many	-8.03367
▁Mo	-8.03491
▁life	-8.03567
▁con	-8.03578
▁Dur	-8.03666
▁American	-8.03813
ti	-8.04068
un	-8.04107
▁River	-8.043
▁No	-8.04349
▁won	-8.04523
▁g	-8.04729
▁any	-8.04764
▁f	-8.04913
▁own	-8.05211
▁being	-8.05306
▁series	-8.05524
▁within	-8.0582
▁where	-8.06052
▁City	-8.06416
der	-8.06856
ical	-8.07236
▁received	-8.08123
▁John	-8.08155
im	-8.0825
▁Ha	-8.08677
▁c	-8.08701
▁however	-8.08854
S	-8.0891
as	-8.08944
▁we	-8.08973
▁Park	-8.08992
ted	-8.09017
▁P	-8.09063
ary	-8.0952
▁included	-8.09714
go	-8.09941
▁short	-8.10343
▁On	-8.10765
▁public	-8.11813
▁Mar	-8.11858
▁Pa	-8.12131
▁day	-8.12151
▁head	-8.12317
ad	-8.12395
▁could	-8.12514
ut	-8.1255
va	-8.12551
▁La	-8.12614
▁began	-8.12644
per	-8.12668
▁South	-8.12808
▁b	-8.12843
▁But	-8.12915
no	-8.13341
▁major	-8.14012
ated	-8.14254
▁place	-8.14543
▁state	-8.14547
▁currently	-8.14548
▁took	-8.14573
▁line	-8.14601
▁Saint	-8.14735
▁following	-8.14896
▁early	-8.15479
v	-8.15772
▁College	-8.15863
▁much	-8.15865
▁form	-8.15958
▁company	-8.16546
▁member	-8.16611
▁Ka	-8.16611
▁You	-8.1677
▁book	-8.16854
di	-8.17069
▁W	-8.17104
▁North	-8.17663
da	-8.17826
▁e	-8.17975
up	-8.18371
▁left	-8.18392
▁what	-8.18858
ous	-8.19446
om	-8.20132
▁Other	-8.20543
▁Me	-8.20702
▁Na	-8.20743
▁War	-8.20762
▁season	-8.20797
ver	-8.20819
ner	-8.21031
▁former	-8.21237
ru	-8.21433
▁community	-8.21465
▁around	-8.21466
▁Ho	-8.21498
▁Be	-8.22181
▁career	-8.22549
▁And	-8.22582
▁Sa	-8.22717
▁while	-8.22933
▁popular	-8.2311
P	-8.23349
▁side	-8.23551
▁play	-8.23667
▁Ba	-8.24191
op	-8.24196
ally	-8.24339
▁building	-8.24403
▁Ca	-8.24632
▁G	-8.24755
▁York	-8.24875
mi	-8.25131
▁held	-8.2514
▁just	-8.25146
▁against	-8.25218
▁Bo	-8.25316
▁down	-8.25318
▁di	-8.2534
▁Two	-8.25641
B	-8.25656
▁off	-8.25672
▁So	-8.25702
▁government	-8.25912
▁died	-8.25937
ling	-8.26261
▁site	-8.2645
▁went	-8.26535
ka	-8.26654
do	-8.26767
▁north	-8.2681
▁six	-8.27076
▁based	-8.27136
▁set	-8.27146
tion	-8.27333
▁English	-8.274
nd	-8.27434
▁original	-8.27625
ite	-8.27835
▁Li	-8.27865
▁released	-8.2818
pe	-8.2819
▁worked	-8.2847
▁Ra	-8.28533
▁Vi	-8.28729
▁Ta	-8.28745
▁National	-8.28969
ham	-8.29065
ig	-8.29282
ca	-8.29386
▁built	-8.29459
▁death	-8.29755
▁term	-8.29967
▁seat	-8.30176
▁'	-8.30192
▁considered	-8.3037
ler	-8.30417
▁pre	-8.30695
les	-8.30761
▁house	-8.30803
▁world	-8.3084
▁single	-8.30939
▁States	-8.3133
▁Do	-8.31389
▁war	-8.31539
▁good	-8.31582
▁few	-8.3183
▁make	-8.32641
▁species	-8.32899
ance	-8.3309
lin	-8.33333
▁Most	-8.33465
ness	-8.33488
way	-8.33598
▁another	-8.33711
▁Man	-8.34337
▁Po	-8.34422
▁get	-8.34435
▁contain	-8.34634
gg	-8.34805
▁Both	-8.35188
▁produced	-8.35332
▁important	-8.35355
ven	-8.35525
▁law	-8.35647
ting	-8.35648
▁written	-8.35665
▁members	-8.3589
▁club	-8.36461
ho	-8.37024
▁r	-8.3731
▁period	-8.37583
▁open	-8.37602
▁When	-8.37628
▁river	-8.37866
▁car	-8.37897
▁attended	-8.381
▁including	-8.38149
▁among	-8.38156
▁High	-8.38378
▁lead	-8.38444
▁white	-8.38506
▁common	-8.38614
po	-8.38819
▁Con	-8.38927
▁Its	-8.39164
▁south	-8.39396
the	-8.39823
▁since	-8.40444
od	-8.40556
▁along	-8.4079
▁service	-8.40808
A	-8.40808
ish	-8.4081
▁available	-8.41027
ther	-8.41123
▁land	-8.41138
▁park	-8.41167
▁district	-8.41319
ized	-8.41672
▁various	-8.41906
ot	-8.4232
min	-8.42414
▁moved	-8.4242
▁black	-8.42497
▁must	-8.42797
▁works	-8.42853
▁That	-8.4288
▁best	-8.43119
▁men	-8.43946
▁next	-8.4399
▁wife	-8.4399
▁support	-8.44079
ard	-8.44288
lu	-8.44332
▁usually	-8.44335
▁point	-8.44384
▁power	-8.44396
▁way	-8.44466
▁pro	-8.44526
less	-8.44563
▁sub	-8.44838
▁third	-8.44896
▁London	-8.452
ba	-8.45615
▁result	-8.45986
▁run	-8.46393
bo	-8.46611
▁go	-8.4688
▁brother	-8.47057
▁mother	-8.47066
▁dis	-8.47212
io	-8.47216
▁again	-8.47252
▁Lo	-8.47313
▁D	-8.47346
▁similar	-8.47354
▁published	-8.47512
mb	-8.48214
▁does	-8.48446
▁see	-8.48739
che	-8.4892
▁British	-8.48921
▁Di	-8.49276
▁take	-8.49373
▁county	-8.4963
con	-8.49716
em	-8.49856
▁live	-8.49909
▁mo	-8.5012
field	-8.50173
▁came	-8.50209
▁young	-8.50221
▁wrote	-8.50236
▁become	-8.50419
▁K	-8.50517
▁church	-8.50631
ster	-8.50726
▁position	-8.50983
▁continued	-8.5114
den	-8.5121
▁national	-8.51331
one	-8.51345
▁art	-8.5148
▁German	-8.51482
▁England	-8.51806
tra	-8.52131
▁history	-8.52461
▁right	-8.52604
que	-8.52824
ville	-8.5285
▁West	-8.52991
bi	-8.53097
▁current	-8.53389
▁present	-8.53394
▁design	-8.53433
▁State	-8.53518
ab	-8.53584
▁Ne	-8.53656
▁here	-8.54111
▁songs	-8.544
▁old	-8.54538
mer	-8.54958
F	-8.55151
▁returned	-8.5533
hi	-8.55368
▁Ga	-8.55433
▁sometime	-8.55846
wa	-8.56018
▁w	-8.56046
▁French	-8.56126
▁post	-8.56357
sa	-8.56642
pa	-8.56672
he	-8.56887
▁San	-8.56907
▁includes	-8.56908
ff	-8.57739
▁Sever	-8.57901
▁Ar	-8.5803
▁himself	-8.58184
▁times	-8.58249
▁daughter	-8.58367
▁great	-8.58492
▁woman	-8.58532
▁Go	-8.58539
▁What	-8.58647
▁Pe	-8.58698
▁serve	-8.58748
ak	-8.58853
men	-8.58869
▁buried	-8.5888
ac	-8.5888
▁interest	-8.58911
T	-8.58914
ap	-8.59042
lic	-8.59101
▁language	-8.59183
▁business	-8.59301
▁provide	-8.59313
▁features	-8.59338
▁largest	-8.59449
▁Fa	-8.59509
▁island	-8.59666
▁role	-8.59846
rs	-8.59926
▁general	-8.5993
▁little	-8.59934
▁non	-8.60083
▁even	-8.6017
▁sp	-8.60219
pp	-8.60281
▁title	-8.60451
▁football	-8.60642
▁process	-8.61554
ber	-8.61631
▁without	-8.61717
▁light	-8.61807
▁consist	-8.61921
▁final	-8.62452
▁every	-8.62545
▁Car	-8.63012
▁playing	-8.63074
▁order	-8.63079
▁research	-8.63159
▁region	-8.63164
▁appeared	-8.6324
▁free	-8.63339
▁list	-8.63378
▁seen	-8.63578
ial	-8.63624
▁party	-8.63679
▁Lake	-8.6369
ology	-8.63773
▁studied	-8.6389
tor	-8.63983
▁District	-8.64627
ron	-8.64684
▁U	-8.64779
▁your	-8.64823
C	-8.65204
ah	-8.65436
▁should	-8.65467
▁started	-8.65985
ell	-8.66084
▁example	-8.66298
▁air	-8.66456
▁college	-8.66492
ow	-8.66529
▁don	-8.66664
ect	-8.6721
ud	-8.67709
dy	-8.67725
▁led	-8.67784
▁described	-8.67811
▁official	-8.6801
▁novel	-8.68013
nt	-8.68174
▁know	-8.68452
▁ten	-8.68455
▁World	-8.68807
▁Later	-8.68855
ath	-8.68858
▁remains	-8.68954
out	-8.69073
▁player	-8.69159
ities	-8.69203
▁if	-8.69261
by	-8.69281
▁center	-8.69556
▁west	-8.69781
▁due	-8.70158
▁given	-8.70216
▁those	-8.70336
▁production	-8.70376
line	-8.70409
▁seven	-8.70652
▁project	-8.70712
▁El	-8.71171
ag	-8.71203
iv	-8.71353
ure	-8.7168
side	-8.71775
▁control	-8.71894
▁William	-8.72244
▁California	-8.72308
ions	-8.72323
▁throughout	-8.72361
lan	-8.72392
▁Lu	-8.72453
ship	-8.72584
▁hand	-8.72631
▁red	-8.72698
▁recorded	-8.72955
▁bar	-8.73003
ten	-8.73085
▁political	-8.73109
▁top	-8.7332
▁development	-8.73534
▁field	-8.736
▁help	-8.73617
I	-8.73709
os	-8.73754
time	-8.74046
za	-8.74079
▁King	-8.7437
▁too	-8.74377
▁Can	-8.74416
▁style	-8.74691
▁Mi	-8.74704
▁East	-8.74961
▁students	-8.75201
▁With	-8.75502
▁always	-8.7556
▁character	-8.75574
M	-8.75591
cause	-8.75798
▁Gu	-8.75882
▁country	-8.75981
▁Pro	-8.76111
ett	-8.76152
ful	-8.76208
▁find	-8.76234
ang	-8.76242
▁east	-8.76297
▁means	-8.76432
▁areas	-8.76497
▁look	-8.76539
▁today	-8.76546
▁road	-8.76738
und	-8.76757
▁further	-8.76803
▁using	-8.76811
au	-8.7684
▁office	-8.76876
▁Pi	-8.76973
ov	-8.76983
▁Jo	-8.77046
▁Church	-8.77217
▁eventually	-8.77217
▁active	-8.7747
▁version	-8.77582
▁Hu	-8.77618
▁street	-8.77637
▁Te	-8.77663
▁market	-8.77666
▁Island	-8.78081
▁services	-8.78429
▁J	-8.78499
ford	-8.78698
▁program	-8.7878
▁performed	-8.78826
▁military	-8.78908
fe	-8.7918
▁successful	-8.7935
▁provided	-8.79583
gen	-8.7968
▁stage	-8.79798
▁think	-8.79822
▁Mu	-8.79971
▁originally	-8.80007
▁days	-8.8016
bb	-8.80341
▁word	-8.80348
▁return	-8.80349
G	-8.80351
▁lives	-8.80446
▁House	-8.80649
▁eight	-8.81028
▁video	-8.81063
▁capital	-8.81064
▁together	-8.81064
▁generally	-8.81108
▁rock	-8.81241
▁range	-8.81347
▁replaced	-8.81563
▁M	-8.81588
ub	-8.81602
▁race	-8.81621
▁featured	-8.81928
vo	-8.8196
▁Un	-8.82068
▁ma	-8.82176
if	-8.82178
▁love	-8.82205
▁record	-8.82376
▁women	-8.82379
▁lost	-8.82425
▁president	-8.82449
we	-8.82501
▁joined	-8.82737
▁population	-8.82822
▁full	-8.82929
▁fire	-8.82998
▁Roman	-8.83004
▁child	-8.83249
▁start	-8.83257
▁special	-8.8329
qui	-8.83321
▁Cha	-8.83323
▁Party	-8.83429
▁soon	-8.83532
tter	-8.83561
▁level	-8.83594
▁remained	-8.83665
▁games	-8.83727
▁addition	-8.83783
▁how	-8.83863
▁want	-8.83954
▁modern	-8.84161
▁close	-8.84231
▁Hill	-8.84439
▁Canada	-8.84616
▁human	-8.84628
▁Robert	-8.84629
▁developed	-8.84632
▁books	-8.84756
ft	-8.84762
▁Da	-8.84925
han	-8.8493
cy	-8.85223
▁per	-8.85365
▁class	-8.85458
tan	-8.85462
tro	-8.85468
▁grew	-8.85532
▁success	-8.85832
ki	-8.86042
▁come	-8.8621
▁lived	-8.86337
ious	-8.86477
▁wear	-8.86626
ugh	-8.86636
▁Street	-8.86895
▁international	-8.86964
▁half	-8.87039
▁Ru	-8.87108
▁give	-8.87141
▁track	-8.87191
▁created	-8.8729
▁real	-8.876
▁Europe	-8.87745
▁inter	-8.87779
▁television	-8.87824
▁taken	-8.87841
▁George	-8.87889
ney	-8.87958
▁Green	-8.88084
▁case	-8.88223
▁lies	-8.88298
▁involved	-8.88426
▁Bar	-8.88533
▁Ko	-8.88565
▁Australia	-8.88696
▁League	-8.8876
▁private	-8.8876
▁influence	-8.8876
ill	-8.88942
ward	-8.88966
▁schools	-8.8928
ger	-8.89283
▁once	-8.89333
led	-8.89342
ide	-8.89511
▁events	-8.89531
▁round	-8.89553
▁need	-8.89976
▁attack	-8.90008
ating	-8.90045
▁working	-8.90129
▁My	-8.90148
▁got	-8.90317
▁education	-8.90414
ko	-8.90649
▁Wa	-8.90665
chi	-8.90874
▁less	-8.90922
E	-8.91062
kin	-8.9113
ey	-8.91226
▁strong	-8.91233
▁months	-8.91322
and	-8.91496
▁Se	-8.91629
▁food	-8.91634
▁designed	-8.91697
▁person	-8.9189
▁commercial	-8.92109
▁age	-8.92133
port	-8.92332
▁turn	-8.92381
▁Per	-8.9241
wood	-8.92603
▁Hall	-8.92696
▁Indian	-8.92754
ier	-8.92993
bu	-8.93421
▁Bu	-8.93425
▁type	-8.93436
▁followed	-8.93955
tal	-8.94045
▁Another	-8.94075
▁centre	-8.94077
▁author	-8.94078
▁bo	-8.94519
▁body	-8.94612
▁James	-8.94616
▁met	-8.94677
▁call	-8.94684
ations	-8.94849
▁social	-8.94999
D	-8.95026
▁International	-8.95072
▁movie	-8.95073
har	-8.95236
▁release	-8.95312
▁owned	-8.95504
▁Council	-8.95574
▁France	-8.95576
▁Ti	-8.95577
cha	-8.95592
▁America	-8.95604
▁front	-8.95685
▁travel	-8.95686
▁sea	-8.95793
ina	-8.95818
▁ground	-8.95822
▁event	-8.96013
▁numerous	-8.9608
▁practice	-8.96112
▁raised	-8.96141
ator	-8.96152
▁force	-8.96171
▁outside	-8.96179
ence	-8.96297
▁Th	-8.96573
▁paper	-8.96614
▁Com	-8.96902
ise	-8.96908
▁away	-8.96952
▁mountain	-8.97098
well	-8.97136
▁Road	-8.97178
▁writing	-8.97187
▁story	-8.97215
ex	-8.97251
king	-8.9732
▁ex	-8.97398
▁study	-8.9761
▁court	-8.97702
▁Ben	-8.97733
tur	-8.97739
our	-8.97817
▁en	-8.9793
▁action	-8.97959
hu	-8.98103
▁nearby	-8.98174
day	-8.98224
▁General	-8.98246
gi	-8.98436
▁am	-8.98561
▁David	-8.98644
▁Har	-8.98691
▁elected	-8.98918
▁ever	-8.98961
▁night	-8.99018
▁change	-8.99055
▁Chi	-8.99172
nes	-8.99181
▁base	-8.99339
▁model	-8.99401
▁parents	-8.99462
▁Su	-8.99481
▁tour	-8.99561
▁primary	-8.99688
▁store	-8.99705
▁railway	-8.99707
▁saw	-8.99714
▁Je	-8.99725
though	-8.9978
ja	-8.99841
▁Bra	-8.99912
ture	-8.99996
cent	-9.00193
referred	-9.00214
▁test	-9.00314
▁If	-9.00329
ving	-9.00468
lmost	-9.00735
ren	-9.01204
▁operated	-9.01214
▁above	-9.01277
▁performance	-9.0129
▁hard	-9.01318
▁director	-9.01336
ding	-9.01412
▁space	-9.01435
▁across	-9.01567
▁Sch	-9.01605
▁St	-9.01662
like	-9.01681
ative	-9.0181
▁famous	-9.01872
▁Black	-9.01891
▁coach	-9.01946
her	-9.02044
▁Du	-9.02104
▁du	-9.02198
let	-9.02249
▁deal	-9.0231
▁blue	-9.02349
▁Pu	-9.02395
ization	-9.02487
▁professional	-9.02521
▁sc	-9.0253
ries	-9.02687
ng	-9.02693
ctor	-9.02896
▁operate	-9.02987
av	-9.03026
▁northern	-9.03434
▁Today	-9.03471
▁Bi	-9.03483
▁battle	-9.03483
til	-9.03559
head	-9.03622
▁Si	-9.03687
▁thought	-9.03755
▁Cor	-9.03959
▁subsequently	-9.0408
▁By	-9.04111
▁rest	-9.04127
▁Ni	-9.0419
▁established	-9.04194
ize	-9.04343
▁Ja	-9.04366
▁fall	-9.04404
gar	-9.04433
▁Wi	-9.04458
▁route	-9.04533
mu	-9.04802
sen	-9.05006
gave	-9.05063
▁southern	-9.05083
▁lake	-9.05123
tu	-9.05278
ee	-9.05347
▁information	-9.05378
▁date	-9.05604
▁low	-9.05642
▁plays	-9.06009
O	-9.06175
▁India	-9.06372
▁anti	-9.06594
▁act	-9.06664
▁Ge	-9.06669
▁Cemetery	-9.06757
▁First	-9.06757
▁itself	-9.06757
▁health	-9.06761
▁Township	-9.06769
▁Christian	-9.0682
ple	-9.06863
▁cover	-9.06866
▁com	-9.06965
▁below	-9.07018
▁widely	-9.07035
▁far	-9.07053
ium	-9.07075
▁forms	-9.07077
▁Air	-9.07158
▁listed	-9.07299
▁sold	-9.07345
▁movement	-9.07384
▁Hi	-9.07428
ana	-9.07522
▁Don	-9.07576
▁changed	-9.07832
▁natural	-9.0789
▁Paul	-9.07935
▁Tu	-9.0825
▁put	-9.08349
▁subject	-9.08461
▁either	-9.08461
▁competition	-9.08463
▁independent	-9.08568
K	-9.08595
shi	-9.08941
fa	-9.08968
▁imp	-9.08988
▁May	-9.09104
▁going	-9.09173
▁bank	-9.0932
▁h	-9.09326
▁Che	-9.09351
▁traditional	-9.09381
ral	-9.09421
fi	-9.09609
▁magazine	-9.09614
cul	-9.0963
▁appear	-9.09765
▁significant	-9.09804
▁ca	-9.09813
▁say	-9.0986
van	-9.10062
▁division	-9.10204
▁Peter	-9.10266
▁collection	-9.10277
▁Bay	-9.10454
ring	-9.10507
▁killed	-9.10565
▁focus	-9.10578
tin	-9.10896
▁systems	-9.11167
gue	-9.11313
▁While	-9.11402
mit	-9.11579
▁report	-9.11958
▁Catholic	-9.1196
▁ship	-9.11969
▁board	-9.12015
▁Tra	-9.12228
▁done	-9.12239
ip	-9.12296
▁Fe	-9.12321
▁Ex	-9.12333
▁plant	-9.12496
▁radio	-9.12609
red	-9.12658
▁feature	-9.12681
▁room	-9.13031
▁teams	-9.13112
▁degree	-9.13155
▁la	-9.13185
▁President	-9.13235
▁view	-9.13279
▁boy	-9.13411
▁standard	-9.13771
▁origin	-9.13902
▁European	-9.13919
ue	-9.14143
▁match	-9.14187
▁better	-9.14232
ya	-9.14239
▁trade	-9.14371
▁sound	-9.1442
ef	-9.14425
▁Union	-9.14486
▁noted	-9.14557
gan	-9.14606
▁Cla	-9.14767
▁Mr	-9.14777
▁ti	-9.1484
ny	-9.14873
▁leader	-9.14941
▁unti	-9.14974
▁police	-9.14975
▁win	-9.14979
▁construction	-9.14993
town	-9.15197
house	-9.15335
▁border	-9.15545
act	-9.15739
▁pa	-9.15792
▁late	-9.15879
▁bi	-9.15965
don	-9.16009
▁campaign	-9.16203
▁primarily	-9.16203
▁voice	-9.16203
▁relationship	-9.16206
▁training	-9.16246
▁course	-9.16287
ists	-9.16485
duc	-9.16576
tz	-9.16708
▁cross	-9.16784
▁industry	-9.16824
▁reported	-9.16946
W	-9.1699
▁separate	-9.1702
▁key	-9.17224
▁Col	-9.17226
▁text	-9.17438
▁Three	-9.1745
▁From	-9.17454
▁countries	-9.17455
▁Fi	-9.17604
▁green	-9.17683
ius	-9.17752
▁L	-9.17756
▁Mac	-9.17805
ob	-9.17841
▁How	-9.17946
row	-9.18017
ong	-9.18047
▁Japanese	-9.18086
▁source	-9.18154
ran	-9.183
use	-9.18416
▁reviews	-9.18436
over	-9.18496
▁formed	-9.1854
nce	-9.18544
ker	-9.18562
▁produce	-9.18599
hy	-9.18664
▁train	-9.18693
▁couple	-9.18712
▁Richard	-9.18717
▁associated	-9.18788
▁divided	-9.18809
▁move	-9.18929
▁bridge	-9.19104
ze	-9.19202
▁educated	-9.19348
▁especially	-9.19348
▁Ireland	-9.19349
▁native	-9.19352
▁Or	-9.19405
▁sister	-9.19492
▁th	-9.19492
shire	-9.19511
oc	-9.19519
val	-9.19612
▁pi	-9.19636
▁approach	-9.19989
▁possible	-9.19989
rie	-9.19993
▁share	-9.20034
▁gold	-9.20036
▁economic	-9.20043
▁quickly	-9.20091
▁location	-9.20151
▁material	-9.20151
▁covered	-9.20159
tri	-9.20173
▁supported	-9.20219
ual	-9.20271
ik	-9.20321
▁players	-9.2038
▁positive	-9.20634
▁university	-9.20634
▁Thomas	-9.20634
▁upon	-9.20665
▁others	-9.20779
ition	-9.21208
▁female	-9.21284
▁Bur	-9.21315
▁Gra	-9.21322
▁Also	-9.21323
▁Pre	-9.21393
ors	-9.21564
▁buildings	-9.21624
▁Sc	-9.21878
▁Tri	-9.21884
▁our	-9.21949
▁kind	-9.21954
▁table	-9.21969
▁sons	-9.22119
▁groups	-9.22395
▁election	-9.22408
ight	-9.22451
▁Red	-9.22505
▁Japan	-9.22593
▁newspaper	-9.22595
▁stop	-9.22626
▁data	-9.22638
▁quite	-9.22645
▁Royal	-9.22666
▁via	-9.22715
▁Russian	-9.2278
▁fight	-9.22811
eg	-9.22826
▁N	-9.22851
▁tell	-9.22886
ay	-9.2314
▁En	-9.23159
▁size	-9.2323
▁represented	-9.23255
▁brought	-9.23257
▁Sal	-9.23268
▁parish	-9.23269
▁runs	-9.23323
▁specific	-9.23365
▁previously	-9.23585
▁Sta	-9.23627
sk	-9.23675
▁directed	-9.23684
lon	-9.23688
ica	-9.2369
▁added	-9.23719
▁command	-9.23853
▁friend	-9.2388
▁contract	-9.23925
▁network	-9.23926
▁host	-9.23971
end	-9.24001
▁l	-9.24009
pro	-9.2406
▁sign	-9.24061
back	-9.24091
H	-9.24114
▁Rock	-9.24148
▁See	-9.24215
▁Bas	-9.24225
▁limited	-9.2433
▁toward	-9.24333
▁Bel	-9.24485
▁marriage	-9.24595
▁Germany	-9.24625
ken	-9.24628
▁closed	-9.24633
▁spent	-9.2468
▁media	-9.24687
ile	-9.2483
▁particularly	-9.24878
▁notable	-9.24912
▁houses	-9.24927
▁color	-9.25142
▁Smith	-9.25273
▁Gar	-9.25517
ery	-9.25548
▁experience	-9.25559
rac	-9.25574
▁appears	-9.25593
▁fish	-9.25757
▁face	-9.25888
▁cap	-9.25892
ified	-9.25926
▁continues	-9.26111
▁sent	-9.26179
▁decided	-9.26197
▁ta	-9.26249
▁theory	-9.26557
sha	-9.26563
▁access	-9.26635
▁floor	-9.26636
▁Chinese	-9.26636
▁self	-9.26638
▁star	-9.2664
▁aircraft	-9.26643
▁Ju	-9.27053
▁White	-9.27061
▁shows	-9.27074
▁headquarters	-9.27326
istic	-9.27332
▁Mary	-9.27418
▁k	-9.27473
▁changes	-9.27543
▁hit	-9.27632
▁Africa	-9.27691
▁longer	-9.27719
▁pass	-9.2773
▁Mor	-9.27789
▁Am	-9.27792
▁se	-9.2787
▁dark	-9.28027
▁Ke	-9.28054
ua	-9.28138
all	-9.28411
▁Mon	-9.28626
▁central	-9.2872
▁nine	-9.28737
art	-9.28762
▁science	-9.28821
▁More	-9.28888
▁Gi	-9.28912
ug	-9.29006
▁student	-9.29323
rus	-9.29343
▁older	-9.29369
▁Central	-9.29424
ological	-9.29482
▁takes	-9.29881
▁caused	-9.29969
stone	-9.2997
▁complete	-9.29984
▁shot	-9.30135
▁Western	-9.30137
▁structure	-9.30153
off	-9.30251
▁Award	-9.30568
▁represent	-9.3069
▁camp	-9.30775
ain	-9.30814
▁actor	-9.30819
▁rank	-9.30836
ai	-9.30841
▁Museum	-9.30847
▁composed	-9.30847
▁complex	-9.3085
▁manager	-9.30926
ita	-9.30985
ev	-9.31112
▁entire	-9.31177
▁Min	-9.31216
▁recording	-9.31241
▁bus	-9.31354
lla	-9.31418
▁past	-9.31512
▁honor	-9.31536
▁Society	-9.31567
▁certain	-9.31567
▁rather	-9.31569
▁Court	-9.31571
▁appearance	-9.31577
▁us	-9.31786
▁required	-9.31811
▁Bre	-9.32008
lli	-9.32171
▁Han	-9.32189
▁ended	-9.32224
mar	-9.32231
▁appointed	-9.32291
▁value	-9.32294
▁something	-9.32296
▁summer	-9.32301
▁relative	-9.32303
▁China	-9.32385
▁Sea	-9.3239
▁related	-9.326
▁week	-9.32681
cho	-9.32873
▁council	-9.33021
▁behind	-9.33021
▁Doctor	-9.33055
▁Thus	-9.33129
▁girl	-9.33226
▁lot	-9.33272
▁forest	-9.33278
▁Tre	-9.3328
▁hav	-9.3333
▁turned	-9.33361
▁box	-9.33453
▁write	-9.33558
ick	-9.33713
▁Creek	-9.33763
car	-9.33766
▁Henry	-9.33766
▁money	-9.33789
▁effect	-9.33793
ible	-9.33821
▁Like	-9.33856
▁credit	-9.33863
▁Ku	-9.33899
j	-9.33952
▁Music	-9.33957
▁al	-9.34011
▁teacher	-9.34018
▁mission	-9.34052
ned	-9.34115
▁dog	-9.34284
▁v	-9.34294
fu	-9.34355
▁able	-9.34363
▁comes	-9.34408
fer	-9.34433
▁Texas	-9.34497
▁enjoy	-9.34497
▁hospital	-9.34497
▁Greek	-9.34501
▁Italian	-9.34504
▁Airport	-9.34515
▁placed	-9.34567
old	-9.34618
▁musical	-9.3465
ory	-9.34662
▁charge	-9.3477
▁Cal	-9.35232
▁husband	-9.35243
▁museum	-9.35243
▁situated	-9.35243
▁purpose	-9.35244
▁younger	-9.35252
▁Town	-9.35264
ix	-9.3534
▁problem	-9.35403
▁survived	-9.35497
▁mixed	-9.35559
▁farm	-9.35619
▁H	-9.35757
▁films	-9.35821
▁Fo	-9.35948
▁variety	-9.35995
▁Wood	-9.35996
worth	-9.36003
▁cut	-9.36005
▁department	-9.36012
▁Charles	-9.36059
▁artist	-9.36175
ole	-9.36245
ino	-9.36246
vin	-9.3636
▁rate	-9.36408
ington	-9.36414
▁makes	-9.36432
air	-9.36483
▁Shi	-9.36502
mm	-9.36559
▁ba	-9.36594
▁wood	-9.36647
▁Michael	-9.36753
▁horse	-9.36754
▁broadcast	-9.36756
wn	-9.36763
▁gain	-9.36796
▁matter	-9.36797
ake	-9.3693
▁individual	-9.36973
▁section	-9.36975
▁Ye	-9.37006
▁finished	-9.37194
▁lower	-9.37219
▁western	-9.37227
▁sw	-9.3727
▁helped	-9.37336
ea	-9.37435
▁guitar	-9.37452
▁minor	-9.37467
▁yellow	-9.37516
▁Club	-9.37517
▁visit	-9.37553
▁hold	-9.37603
qua	-9.37604
▁managed	-9.37697
▁regular	-9.37896
▁dance	-9.37902
▁friends	-9.37917
▁exist	-9.37988
ble	-9.37989
▁Ver	-9.38004
▁multi	-9.3821
▁highly	-9.38247
▁activities	-9.38285
▁Dr	-9.38316
▁Latin	-9.38333
▁frequently	-9.38456
▁keep	-9.38474
▁Ad	-9.38489
uff	-9.38561
▁commonly	-9.38566
form	-9.38786
▁offers	-9.38822
low	-9.38859
▁Men	-9.38866
▁problems	-9.38897
spect	-9.38979
▁companies	-9.39061
▁question	-9.39061
▁least	-9.39069
▁unit	-9.39133
▁cast	-9.39169
▁Ch	-9.39182
▁ancient	-9.39251
▁though	-9.3928
▁cases	-9.39285
▁sports	-9.39291
▁episode	-9.39394
ris	-9.39645
▁running	-9.39848
▁deep	-9.3987
ade	-9.3996
ency	-9.40059
▁making	-9.40102
light	-9.40126
▁producer	-9.40186
▁previous	-9.4024
▁Sam	-9.40245
▁products	-9.40283
▁wide	-9.40324
ack	-9.40336
▁meaning	-9.40349
work	-9.40421
zi	-9.40448
▁gun	-9.40464
fin	-9.40472
▁According	-9.40629
▁Company	-9.40629
▁extreme	-9.40629
▁prominent	-9.40629
▁rural	-9.4063
▁Minister	-9.40633
▁male	-9.40633
▁Mountain	-9.40638
▁Valley	-9.40649
▁multiple	-9.40707
▁vote	-9.40719
▁Area	-9.40744
▁succeeded	-9.40774
▁Army	-9.40801
ice	-9.41097
▁ball	-9.41198
▁remain	-9.41228
▁ran	-9.413
ric	-9.41334
ec	-9.41413
▁Washington	-9.41423
▁hundred	-9.41423
▁surface	-9.41423
▁Jewish	-9.41482
▁clear	-9.41832
ast	-9.41974
▁tax	-9.41984
▁shown	-9.41988
ib	-9.42087
▁types	-9.42087
▁Spanish	-9.42223
▁concept	-9.42223
▁image	-9.42225
▁Brown	-9.42232
▁words	-9.42256
▁unknown	-9.42266
cle	-9.42273
qu	-9.42274
▁winter	-9.42284
▁Old	-9.42438
▁Dan	-9.42461
▁break	-9.42507
▁reason	-9.42549
▁stone	-9.42591
▁Sha	-9.42649
▁characters	-9.42661
ray	-9.42718
▁month	-9.42726
▁Ki	-9.4273
▁critics	-9.42779
▁awarded	-9.42824
▁pe	-9.42942
▁create	-9.43002
▁Chicago	-9.43029
▁Follow	-9.43029
▁concern	-9.43029
▁province	-9.43029
▁colour	-9.4303
▁account	-9.4303
▁Center	-9.43031
▁job	-9.43038
▁settlement	-9.43039
▁things	-9.43166
com	-9.43178
bury	-9.43301
▁tracks	-9.43323
oo	-9.43376
bin	-9.4338
ari	-9.43475
▁Great	-9.43558
▁leave	-9.43569
▁fourth	-9.43578
▁boat	-9.43671
rat	-9.43735
▁mis	-9.43786
▁depend	-9.43798
▁decision	-9.43842
▁studies	-9.43842
▁poor	-9.43845
▁immediately	-9.43962
ueen	-9.43968
oph	-9.44039
bar	-9.4405
▁Sun	-9.44095
▁seem	-9.44307
▁allowed	-9.44386
lock	-9.44459
my	-9.44462
▁uses	-9.44492
▁goal	-9.44492
▁founded	-9.445
▁Association	-9.44662
▁restaurant	-9.44662
▁Win	-9.44825
▁Em	-9.44855
▁length	-9.44871
▁Pri	-9.44881
▁languages	-9.4498
ou	-9.45008
▁writer	-9.45012
▁Tom	-9.45048
▁Ab	-9.4538
▁personal	-9.45393
▁studio	-9.45489
▁issues	-9.45601
▁introduced	-9.45691
▁failed	-9.45779
▁Bri	-9.45838
▁Sir	-9.45885
▁big	-9.46123
▁hill	-9.4613
ore	-9.46165
▁passed	-9.46344
▁door	-9.46416
▁read	-9.4652
▁arm	-9.46543
wi	-9.4656
Ma	-9.46688
berg	-9.46799
more	-9.4686
▁offer	-9.46953
▁Pat	-9.47
year	-9.47039
▁Will	-9.47126
▁card	-9.47142
▁tournament	-9.47162
yl	-9.47163
▁derive	-9.47166
▁edition	-9.47172
▁flight	-9.47198
▁majority	-9.47356
▁cost	-9.47389
▁care	-9.47425
▁God	-9.4743
▁issue	-9.47506
▁Ph	-9.4754
▁receive	-9.4754
▁trans	-9.4756
▁continue	-9.47598
▁holds	-9.47656
ping	-9.47798
▁plan	-9.47802
lip	-9.47815
▁meeting	-9.47825
bro	-9.47825
▁fi	-9.47968
▁probabl	-9.48011
ates	-9.48012
▁label	-9.48022
▁property	-9.48031
▁Canadian	-9.48073
▁defend	-9.48075
▁cities	-9.4808
▁cur	-9.48116
▁Australian	-9.48124
ps	-9.48436
uck	-9.48462
br	-9.48756
bel	-9.48759
▁whole	-9.48788
▁object	-9.48816
▁stories	-9.48864
▁Despi	-9.48878
▁mid	-9.4892
cu	-9.4893
▁attend	-9.49006
og	-9.49068
▁wing	-9.49172
▁walk	-9.49254
ens	-9.4963
▁names	-9.49634
▁tower	-9.49641
▁twice	-9.49726
▁Mount	-9.49748
▁singer	-9.49751
▁Paris	-9.49769
▁retired	-9.49794
graph	-9.49982
ek	-9.50027
zz	-9.50078
▁feed	-9.50093
▁fun	-9.50321
▁o	-9.5033
▁cause	-9.50477
▁offered	-9.50488
▁speak	-9.50518
can	-9.50544
dministrative	-9.50596
▁communities	-9.50596
▁middle	-9.50605
▁meet	-9.50683
▁Four	-9.50737
ston	-9.50772
▁destroyed	-9.50988
▁terms	-9.51034
▁entered	-9.51101
▁metal	-9.51163
▁na	-9.51164
▁completed	-9.51176
▁historical	-9.5126
▁walking	-9.5129
ever	-9.51344
typically	-9.51348
▁Day	-9.51434
▁Public	-9.51473
▁festival	-9.51473
▁symbol	-9.51473
▁league	-9.51473
▁brown	-9.51474
▁join	-9.51485
▁block	-9.51505
▁parts	-9.51507
▁organization	-9.51532
win	-9.51536
▁oldest	-9.51573
▁cor	-9.5162
▁screen	-9.51627
▁shirt	-9.51644
lie	-9.5171
▁perform	-9.51736
▁directly	-9.51781
jo	-9.51857
▁Sy	-9.51884
▁believe	-9.51894
▁Over	-9.51991
▁Not	-9.51992
▁tri	-9.52006
▁critical	-9.52057
▁tradition	-9.52087
▁Act	-9.52311
Since	-9.52312
▁culture	-9.52366
▁kept	-9.52367
▁shop	-9.52374
▁treatment	-9.52389
ealand	-9.52403
pen	-9.52405
▁larger	-9.5241
cker	-9.52464
▁carried	-9.52522
▁leaves	-9.52659
▁points	-9.5268
▁increase	-9.52779
ese	-9.52815
▁smaller	-9.5311
rk	-9.53115
▁Ontario	-9.53251
▁future	-9.53251
▁Lord	-9.53264
▁Edward	-9.53265
tta	-9.53279
▁occur	-9.53381
▁foot	-9.53458
▁Dun	-9.53564
▁develop	-9.53607
▁engine	-9.53614
▁heart	-9.53639
▁African	-9.53677
▁daughters	-9.53677
lia	-9.53811
▁musician	-9.53812
▁Bill	-9.53833
▁Star	-9.53843
▁reached	-9.53887
▁stand	-9.53888
▁artists	-9.53959
▁grow	-9.54007
ability	-9.54048
▁Academy	-9.54152
▁reflect	-9.54152
▁themselves	-9.54152
▁Little	-9.54154
▁airport	-9.54186
▁residents	-9.54257
▁campus	-9.54301
▁regional	-9.5437
▁mayor	-9.54802
▁Dar	-9.54881
▁wind	-9.55059
▁dedicat	-9.55061
▁Irish	-9.55063
▁Up	-9.55112
▁Under	-9.55131
▁Louis	-9.55215
▁highest	-9.55234
▁method	-9.55288
▁talk	-9.55301
▁legal	-9.55315
▁graduated	-9.55318
▁Los	-9.55366
ude	-9.55407
rate	-9.55463
stra	-9.55485
▁increased	-9.55544
▁fact	-9.55561
▁Ed	-9.55632
▁instead	-9.55661
ram	-9.55688
burn	-9.55764
body	-9.55774
▁executive	-9.55978
▁website	-9.55979
▁Port	-9.56024
▁winner	-9.56026
▁reference	-9.56026
▁results	-9.56076
du	-9.56124
▁flows	-9.56183
▁Par	-9.56189
▁versions	-9.56266
▁army	-9.56357
▁score	-9.56478
▁particular	-9.56516
▁Mark	-9.56521
ox	-9.56646
ord	-9.56655
▁recent	-9.56676
ju	-9.56727
▁ho	-9.56813
▁step	-9.56883
▁champion	-9.56888
▁Service	-9.56904
▁computer	-9.56904
▁taught	-9.56906
▁Northern	-9.56909
▁yet	-9.56928
▁Grand	-9.56958
▁cannot	-9.56993
▁sell	-9.57121
gel	-9.57137
▁dead	-9.57145
▁Va	-9.57154
itch	-9.57167
▁Such	-9.57195
▁Art	-9.57342
▁opened	-9.574
▁believed	-9.574
▁Mal	-9.57412
phi	-9.57429
mann	-9.57545
▁standing	-9.5761
ification	-9.57629
board	-9.57669
▁follow	-9.57733
▁chief	-9.57839
▁living	-9.5784
▁Ohio	-9.57849
▁municipality	-9.57866
▁crew	-9.57887
▁Martin	-9.57905
water	-9.57964
▁removed	-9.57974
▁township	-9.57994
▁maintain	-9.58065
▁rare	-9.58434
del	-9.58434
char	-9.58452
▁Records	-9.58505
▁pen	-9.58527
cla	-9.58565
coming	-9.58604
▁Cre	-9.58665
▁Jersey	-9.58782
▁garden	-9.58783
▁cat	-9.58784
▁might	-9.58793
▁Chief	-9.58803
▁latter	-9.58806
▁thus	-9.58903
rry	-9.58922
cher	-9.58923
▁programs	-9.58954
▁Mc	-9.58979
▁path	-9.59038
gon	-9.59085
mate	-9.59207
▁eastern	-9.59306
unt	-9.59322
▁initial	-9.5946
▁Earl	-9.59503
L	-9.59511
▁wall	-9.59563
▁measure	-9.59636
▁suburb	-9.59652
▁king	-9.59705
▁Spring	-9.59735
▁adult	-9.59742
rin	-9.59792
▁didn	-9.59803
based	-9.5981
▁Jones	-9.59849
play	-9.5985
▁Er	-9.59881
az	-9.59891
▁Blue	-9.59973
N	-9.59991
▁Fre	-9.60156
▁higher	-9.60251
▁wanted	-9.60305
▁Bro	-9.60392
▁Ya	-9.60404
ave	-9.60409
▁instrument	-9.6045
▁print	-9.6045
V	-9.60468
▁civil	-9.60592
war	-9.60647
aw	-9.60676
▁already	-9.60696
▁Second	-9.60696
▁disease	-9.60696
▁weather	-9.60697
▁search	-9.60703
▁speed	-9.60705
▁unique	-9.60729
ets	-9.60733
▁tend	-9.60771
▁oil	-9.60802
▁Ve	-9.61011
▁Cup	-9.61031
▁port	-9.61155
nda	-9.61196
▁scene	-9.61206
▁gas	-9.61623
▁operations	-9.61662
▁economy	-9.61667
▁facilities	-9.61667
▁activity	-9.61674
▁Among	-9.61683
iz	-9.6174
▁Board	-9.61755
▁Bal	-9.61817
lay	-9.61844
pped	-9.61906
▁except	-9.61963
▁defeated	-9.62157
▁Law	-9.62204
ji	-9.62252
par	-9.62402
yard	-9.62409
▁award	-9.62464
▁Vo	-9.62486
▁Hol	-9.62516
ria	-9.62545
▁theme	-9.62558
▁transport	-9.62584
▁brothers	-9.62605
▁nickname	-9.62648
▁religious	-9.62648
▁thousand	-9.62648
▁prevent	-9.62651
▁window	-9.62667
▁theatre	-9.62677
ute	-9.627
▁lines	-9.62712
▁direction	-9.62845
nic	-9.62863
▁really	-9.62868
▁Now	-9.62913
rit	-9.6296
rian	-9.63078
▁asked	-9.63111
▁follows	-9.63273
▁conditions	-9.63391
▁coast	-9.63452
▁Fort	-9.63479
▁occurs	-9.63479
ire	-9.63548
▁da	-9.6357
▁concert	-9.63638
▁double	-9.63638
▁basketball	-9.63638
▁nothing	-9.63655
▁hair	-9.63656
ised	-9.63664
atory	-9.63699
▁Ste	-9.63732
pon	-9.63807
▁pick	-9.63825
pose	-9.63964
▁mine	-9.6402
▁simple	-9.64043
▁escape	-9.64168
▁describe	-9.64172
▁completely	-9.64183
▁accepted	-9.64202
dale	-9.6423
▁su	-9.64403
ku	-9.6441
top	-9.64457
burg	-9.64637
▁railroad	-9.64638
▁picture	-9.64638
▁fruit	-9.64638
▁machine	-9.64638
▁trail	-9.6464
▁doctor	-9.6473
▁Virginia	-9.64731
ular	-9.6486
▁mode	-9.64982
ola	-9.6505
▁recently	-9.65061
dle	-9.65279
uch	-9.65318
▁Mag	-9.65331
▁trees	-9.65581
nie	-9.65585
▁editor	-9.65629
▁custom	-9.65648
tern	-9.65664
▁spring	-9.65683
▁spot	-9.65742
▁vary	-9.65744
▁lack	-9.65745
▁fair	-9.65754
▁fiction	-9.65795
▁Long	-9.65811
▁shape	-9.6598
ala	-9.66038
▁bill	-9.66159
▁damage	-9.66218
of	-9.66222
▁Spe	-9.66316
rg	-9.66346
▁rich	-9.6635
▁Easter	-9.66419
cus	-9.66478
▁V	-9.66509
ane	-9.66556
mont	-9.6658
▁pioneer	-9.66668
▁reserve	-9.66668
▁People	-9.66668
▁serious	-9.66668
▁Florida	-9.66669
▁medal	-9.66694
▁strip	-9.66712
▁Jack	-9.66716
▁Cross	-9.66835
▁pair	-9.6684
▁total	-9.66851
▁compar	-9.6687
▁hall	-9.6712
▁function	-9.6718
ult	-9.67294
▁surrounding	-9.67307
mic	-9.67328
▁Every	-9.67345
▁Nor	-9.67412
▁flow	-9.67453
▁platform	-9.67483
▁Pan	-9.67484
rum	-9.67513
▁remaining	-9.67548
▁financial	-9.67699
▁principal	-9.67699
▁responsible	-9.67699
▁enough	-9.67699
▁true	-9.67699
▁app	-9.677
▁heavy	-9.677
▁fishing	-9.67703
▁watch	-9.67715
▁estate	-9.67723
▁owner	-9.67725
▁Italy	-9.67801
▁option	-9.67827
ept	-9.67853
▁told	-9.67854
▁add	-9.67874
▁display	-9.68041
bit	-9.68174
▁needed	-9.6822
▁mean	-9.68493
▁forces	-9.68528
▁ve	-9.68586
▁Cho	-9.68608
lk	-9.68637
▁code	-9.68706
▁politics	-9.68741
▁device	-9.68741
▁industrial	-9.68741
▁commission	-9.68745
▁Bridge	-9.68756
▁crater	-9.6877
▁let	-9.68802
▁signed	-9.68816
▁Johnson	-9.69001
▁officer	-9.69016
ments	-9.69143
▁Lee	-9.69199
pur	-9.6922
▁Part	-9.69337
▁va	-9.69383
cal	-9.69602
▁elements	-9.69629
yo	-9.69635
ette	-9.69652
▁effects	-9.69672
part	-9.69675
vis	-9.69754
▁document	-9.69762
▁Mexico	-9.69793
▁depict	-9.69793
▁Before	-9.69794
▁Institute	-9.69794
▁championship	-9.69812
▁thing	-9.69816
▁heard	-9.69932
▁Angeles	-9.6994
▁typical	-9.69963
▁semi	-9.70013
▁brand	-9.70039
▁partial	-9.70058
▁suffered	-9.70248
▁Christ	-9.70251
ink	-9.70369
▁annual	-9.70466
▁m	-9.70549
▁connected	-9.70578
▁amount	-9.70668
▁Ber	-9.70708
▁Cu	-9.70714
▁poet	-9.70812
▁library	-9.70857
▁target	-9.70857
▁staff	-9.70858
▁poem	-9.70858
▁nature	-9.70872
▁settled	-9.70936
▁carry	-9.7106
▁sun	-9.71077
▁signal	-9.713
▁begins	-9.71373
lly	-9.71423
▁allow	-9.71448
gre	-9.71544
▁Mer	-9.71566
▁chair	-9.71861
▁Then	-9.71882
▁Mill	-9.71908
▁Congress	-9.71932
▁Pennsylvania	-9.71933
▁Scotland	-9.71933
▁literature	-9.71933
▁passenger	-9.71933
▁genus	-9.71935
▁content	-9.71936
▁Philip	-9.71942
▁sitting	-9.7195
▁youth	-9.72047
▁sand	-9.72048
▁Stra	-9.72072
ula	-9.72201
▁plants	-9.72263
▁disc	-9.72268
▁super	-9.723
▁discovered	-9.7232
▁fo	-9.72329
▁Ten	-9.72513
▁operation	-9.72609
je	-9.72611
ase	-9.72614
bon	-9.72679
▁Nu	-9.7274
ography	-9.72788
▁branch	-9.72815
din	-9.72877
▁ways	-9.72979
▁Frank	-9.73009
▁Department	-9.73019
▁accident	-9.73019
▁contemporar	-9.73019
▁traffic	-9.73019
▁August	-9.7302
▁avoid	-9.73022
matic	-9.7305
▁stations	-9.7305
▁Land	-9.73118
▁slightly	-9.73128
med	-9.73129
▁earlier	-9.7315
ura	-9.73217
▁generation	-9.73234
af	-9.73251
▁acting	-9.73258
▁trip	-9.73322
bert	-9.73362
▁surround	-9.73435
ano	-9.73557
▁lo	-9.73558
▁regularly	-9.73574
▁Georgia	-9.73602
▁Sho	-9.73637
uc	-9.73656
▁Governor	-9.74118
▁century	-9.74118
▁Railway	-9.74118
▁Soviet	-9.74118
▁attention	-9.74119
▁interior	-9.74119
▁split	-9.7412
▁software	-9.74122
▁Middle	-9.74127
▁Short	-9.74128
▁snow	-9.74129
▁minister	-9.74136
▁hat	-9.74203
▁Here	-9.74216
▁simply	-9.74231
▁plans	-9.74249
▁doing	-9.74271
▁Ash	-9.74348
▁era	-9.7437
bra	-9.74385
▁constructed	-9.7439
▁tree	-9.74481
igh	-9.74496
▁eyes	-9.7454
▁classes	-9.74616
▁master	-9.74815
▁user	-9.74822
mus	-9.74851
▁photograph	-9.74892
▁animals	-9.74955
ax	-9.74961
ways	-9.74981
▁adapt	-9.75061
▁sources	-9.75095
net	-9.75167
▁birth	-9.75227
▁Eventually	-9.75229
▁Joseph	-9.75229
▁Alexander	-9.75232
▁interview	-9.75237
▁background	-9.75249
▁growth	-9.75334
▁Good	-9.75348
▁figure	-9.75348
▁frame	-9.75411
▁presented	-9.75413
▁loss	-9.75448
▁direct	-9.75464
▁Van	-9.75659
▁mentioned	-9.7571
▁fa	-9.75716
tric	-9.75737
rim	-9.7585
▁awards	-9.75853
hen	-9.75865
▁idea	-9.76068
▁kill	-9.76109
▁flowers	-9.76169
▁inside	-9.76232
ement	-9.76299
▁society	-9.76353
▁Kingdom	-9.76363
▁iron	-9.76395
▁occasionally	-9.76514
Mo	-9.76742
ung	-9.76779
▁parties	-9.76799
▁stated	-9.76856
uk	-9.76857
▁extra	-9.76896
▁becomes	-9.76925
▁Far	-9.76987
▁j	-9.77011
ok	-9.7731
▁Born	-9.7747
▁McC	-9.77479
▁fast	-9.7748
▁Library	-9.77489
▁professor	-9.77489
▁situation	-9.77489
▁Southern	-9.77495
▁Scott	-9.77497
▁piano	-9.77501
▁reaction	-9.77528
▁allows	-9.77554
▁foreign	-9.77592
ash	-9.77623
▁fine	-9.77656
▁Let	-9.77658
▁poly	-9.77689
py	-9.77817
▁mark	-9.77865
put	-9.77887
▁Force	-9.77895
▁participated	-9.77978
rew	-9.78061
▁leg	-9.78376
▁Well	-9.78444
▁beach	-9.78556
▁Tur	-9.78558
▁weeks	-9.78585
▁Illinois	-9.78639
▁evidence	-9.78639
▁technology	-9.78639
▁murder	-9.78647
pine	-9.78667
▁grave	-9.78702
▁fell	-9.78763
dor	-9.78797
▁Sand	-9.78825
▁Station	-9.78872
▁hope	-9.78903
▁condition	-9.78927
▁Bank	-9.78936
▁arrested	-9.78968
▁partner	-9.78973
ski	-9.79002
cur	-9.79023
▁stars	-9.79035
▁lyrics	-9.79037
▁equal	-9.79232
ians	-9.7924
▁Of	-9.79253
for	-9.79386
▁Ag	-9.79473
▁Russia	-9.79475
aries	-9.79519
▁Cat	-9.79537
▁Ly	-9.79714
kh	-9.7977
▁Oxford	-9.79802
▁drug	-9.79802
▁morning	-9.79802
▁twenty	-9.79802
▁valley	-9.79803
▁Carolina	-9.79807
▁earned	-9.79812
▁seed	-9.79817
▁taking	-9.79824
▁dry	-9.79843
▁flag	-9.79893
known	-9.7993
▁Asia	-9.79946
▁limit	-9.80006
▁adopted	-9.80025
tha	-9.802
▁scale	-9.80205
xi	-9.80248
▁plu	-9.80254
nny	-9.8026
sco	-9.80491
▁covers	-9.80631
▁levels	-9.80654
bri	-9.80664
sky	-9.80749
▁build	-9.80794
▁contribut	-9.80807
▁Fer	-9.80869
▁Committee	-9.80978
▁energy	-9.80978
▁incident	-9.80979
▁distance	-9.80979
▁wave	-9.81009
▁motor	-9.81046
▁Republican	-9.81049
▁Because	-9.81055
ara	-9.81143
▁connect	-9.81201
▁connection	-9.81227
▁rights	-9.81257
▁camera	-9.81287
▁selected	-9.813
▁page	-9.81317
▁models	-9.81336
▁quarter	-9.81392
▁press	-9.81417
▁letter	-9.8142
▁stream	-9.81421
ban	-9.81455
▁drive	-9.81519
▁experiment	-9.81559
De	-9.81635
cut	-9.81643
▁claimed	-9.81643
▁emb	-9.81645
ene	-9.81714
▁looking	-9.81734
▁Victoria	-9.81855
▁attempt	-9.81865
long	-9.81873
dent	-9.81894
▁historic	-9.82071
▁Ce	-9.82087
▁Columbia	-9.82169
▁column	-9.82169
▁Toronto	-9.82169
▁operating	-9.82186
▁edge	-9.82236
▁file	-9.82273
▁hot	-9.82283
▁portion	-9.82378
Co	-9.82431
▁arch	-9.82538
▁matches	-9.82573
▁upper	-9.82584
ili	-9.82588
wo	-9.82653
bul	-9.82709
▁pay	-9.8283
fo	-9.82892
▁Boy	-9.83044
▁methods	-9.83074
▁bad	-9.83116
▁Ser	-9.83133
▁Ty	-9.83167
▁records	-9.83184
lam	-9.83212
▁normal	-9.83312
▁rail	-9.83347
▁Olympic	-9.83373
▁Parliament	-9.83373
▁leaving	-9.83373
▁fifth	-9.83374
▁Earth	-9.83375
▁beginning	-9.83375
▁difference	-9.83383
▁baseball	-9.83384
▁basic	-9.83385
▁assistant	-9.83389
▁guest	-9.83395
▁throw	-9.83396
▁Director	-9.8341
▁Water	-9.83486
▁map	-9.83486
▁comment	-9.83521
▁programme	-9.8353
▁northwest	-9.83559
▁moment	-9.83589
▁pitch	-9.83644
▁announced	-9.83708
▁founder	-9.83718
▁tourist	-9.83746
▁expanded	-9.8378
▁Y	-9.83811
▁Wil	-9.83875
▁product	-9.83881
▁review	-9.83954
▁entirely	-9.84032
▁nation	-9.84091
▁Fla	-9.84181
▁trains	-9.84398
▁holding	-9.84446
▁Football	-9.84593
▁captain	-9.84593
▁session	-9.84594
▁distribution	-9.84599
▁Group	-9.8462
▁peak	-9.84624
▁hotel	-9.84669
▁bring	-9.84672
▁enter	-9.84681
▁cal	-9.84681
▁save	-9.84696
▁reach	-9.84701
▁Cra	-9.84762
law	-9.84777
▁quality	-9.84848
▁castle	-9.84863
▁Navy	-9.84865
tte	-9.84881
▁hands	-9.84904
▁roles	-9.84953
▁driver	-9.84962
▁Even	-9.84967
▁protect	-9.85012
▁Mil	-9.85056
No	-9.85082
▁finish	-9.85126
▁refer	-9.85233
▁qua	-9.85541
▁Cro	-9.85637
pan	-9.85682
▁gri	-9.85752
yn	-9.85782
▁stands	-9.85792
▁climate	-9.85827
▁physical	-9.85827
▁potential	-9.85827
▁troops	-9.85827
▁renamed	-9.85828
▁shoot	-9.85828
▁neighborhood	-9.8583
▁composition	-9.85834
mba	-9.85838
▁actress	-9.85839
▁Free	-9.85846
▁management	-9.85848
▁Independent	-9.85855
▁debut	-9.85862
▁Boston	-9.85882
▁online	-9.85896
▁Williams	-9.86025
▁forward	-9.86045
▁states	-9.86095
ini	-9.86118
▁bass	-9.86155
Re	-9.86162
▁Ken	-9.86167
▁ju	-9.86199
run	-9.86359
▁suggest	-9.86364
room	-9.86396
ose	-9.86397
▁extended	-9.86425
vil	-9.8643
▁ice	-9.86434
▁para	-9.865
▁regarded	-9.86506
▁contained	-9.8659
bal	-9.86616
In	-9.8665
▁extensive	-9.86689
▁birds	-9.86714
gle	-9.86726
▁painting	-9.86798
oid	-9.86826
atch	-9.87005
▁Gold	-9.87053
ware	-9.87061
▁Historic	-9.87064
▁explain	-9.87077
▁temperature	-9.87077
▁Britain	-9.87078
▁prior	-9.87078
▁felt	-9.8708
▁basis	-9.87082
▁address	-9.87084
▁detect	-9.87087
▁wish	-9.87162
▁paid	-9.87175
▁structures	-9.87219
zo	-9.87254
R	-9.87324
▁platforms	-9.8734
▁trial	-9.87428
▁accept	-9.87626
eval	-9.87753
▁ring	-9.87777
▁Str	-9.87831
St	-9.88106
▁Ram	-9.88218
ero	-9.88225
▁rule	-9.88227
▁prison	-9.88244
▁Gro	-9.88278
▁Line	-9.88306
▁Pacific	-9.88343
▁academic	-9.88343
▁response	-9.88343
▁victory	-9.88343
▁destination	-9.88343
▁refused	-9.88343
▁senior	-9.88343
▁proposed	-9.88344
▁Therefore	-9.88344
▁Civil	-9.88348
▁medical	-9.88352
▁claim	-9.88369
▁format	-9.88381
▁sense	-9.88391
▁Ban	-9.88437
▁respect	-9.88496
▁ear	-9.88573
▁grass	-9.88579
▁Adam	-9.88592
▁Book	-9.88616
▁firm	-9.88646
▁eat	-9.88664
▁teaching	-9.88684
▁highway	-9.88707
▁opening	-9.88874
lar	-9.89192
▁spin	-9.89294
▁broke	-9.89311
▁fields	-9.89435
▁Bob	-9.8945
ook	-9.89463
Ro	-9.89532
▁piece	-9.89536
He	-9.89598
▁security	-9.89625
▁dropped	-9.89626
▁Member	-9.89627
▁institution	-9.89628
▁Radio	-9.89638
▁pressure	-9.89649
▁why	-9.89665
▁Castle	-9.89667
▁status	-9.89673
▁agent	-9.89716
▁recognized	-9.89732
▁temple	-9.89737
▁Who	-9.89743
▁seasons	-9.89764
▁flat	-9.89852
awa	-9.8994
lot	-9.89975
▁bra	-9.90016
ress	-9.9009
▁affect	-9.90206
▁Pla	-9.90227
ena	-9.90263
bor	-9.90281
ez	-9.90287
rick	-9.90603
▁Mel	-9.9067
▁Young	-9.90723
▁additional	-9.9073
▁closely	-9.90748
▁Carl	-9.90849
▁Through	-9.90924
▁facility	-9.90924
▁Further	-9.90924
▁pattern	-9.90924
▁sail	-9.90929
▁prize	-9.9094
▁impact	-9.90949
west	-9.90949
▁Democratic	-9.90987
▁rain	-9.90999
east	-9.91055
▁par	-9.91148
▁Ol	-9.91264
▁Wal	-9.91431
▁ski	-9.9149
▁regard	-9.91525
▁union	-9.9153
wing	-9.91615
▁article	-9.91839
ties	-9.91844
▁sport	-9.91987
▁link	-9.92043
▁likely	-9.92228
▁broad	-9.92236
▁Please	-9.9224
▁volume	-9.9224
▁blood	-9.9224
▁Lewis	-9.92243
▁convert	-9.92247
▁twelve	-9.92249
▁answer	-9.92251
▁spread	-9.92253
▁fellow	-9.9226
▁hours	-9.92279
▁Pol	-9.92286
▁syn	-9.92348
▁aim	-9.92352
▁trained	-9.92405
ctually	-9.92413
▁million	-9.92421
▁Pra	-9.92493
▁secondary	-9.92502
ort	-9.92536
▁stock	-9.92536
▁Super	-9.92538
▁Forest	-9.92598
▁corner	-9.9262
▁locality	-9.92643
▁rot	-9.92769
▁treat	-9.9281
grad	-9.92848
▁Dis	-9.92864
▁engineering	-9.92871
▁hear	-9.92882
▁Fu	-9.92894
ani	-9.93007
▁Bon	-9.9305
▁weak	-9.93061
▁units	-9.93084
▁tail	-9.93088
▁goes	-9.93133
Ca	-9.93215
gate	-9.93352
ison	-9.93409
▁tu	-9.93512
▁adjacent	-9.93573
▁agriculture	-9.93573
▁committee	-9.93573
▁component	-9.93573
▁descend	-9.93573
▁equipment	-9.93573
▁families	-9.93573
▁federal	-9.93573
▁demand	-9.93579
▁Trans	-9.93596
▁mind	-9.93597
▁fighting	-9.93619
▁acid	-9.93646
▁pull	-9.9365
▁Main	-9.93658
▁die	-9.93658
▁governor	-9.93667
▁Mike	-9.93785
ama	-9.93836
lea	-9.93854
▁Wales	-9.93863
ith	-9.93873
▁sure	-9.93896
▁Much	-9.94132
down	-9.9414
hol	-9.94188
▁Char	-9.94409
oon	-9.9441
izing	-9.94578
▁Rob	-9.94584
▁fully	-9.94619
▁Big	-9.94624
▁medi	-9.94659
▁Hy	-9.94752
▁Republic	-9.94843
▁glass	-9.94861
▁technical	-9.94924
▁Massachusetts	-9.94925
▁herself	-9.94925
▁Liberal	-9.94925
▁square	-9.94925
▁policy	-9.94925
▁script	-9.94925
▁cousin	-9.94926
▁Cambridge	-9.94928
▁whi	-9.94931
▁Scottish	-9.94951
▁Local	-9.94957
▁projects	-9.94966
▁mining	-9.94969
ional	-9.94995
▁steel	-9.94996
▁useful	-9.95072
▁comic	-9.95148
▁Rome	-9.95202
stein	-9.95284
vest	-9.95334
▁Work	-9.95346
▁wheel	-9.95353
▁rules	-9.95502
▁promoted	-9.95514
▁Ang	-9.95636
uin	-9.95667
sey	-9.95699
▁marked	-9.95785
▁difficult	-9.95913
▁Ac	-9.95926
▁eye	-9.96015
night	-9.96026
▁exhibit	-9.96047
▁Sh	-9.96092
▁Government	-9.96294
▁Michigan	-9.96294
▁Education	-9.96294
▁Science	-9.96294
▁proceed	-9.96296
ologist	-9.96301
▁skill	-9.96365
▁coat	-9.96383
hr	-9.96405
▁proved	-9.96564
▁arms	-9.966
▁captured	-9.96619
▁wine	-9.96622
▁Pen	-9.96676
▁solo	-9.96681
▁numbers	-9.96689
▁Rose	-9.96755
▁nor	-9.96785
hill	-9.96794
chan	-9.96811
▁Chan	-9.96811
▁reform	-9.9696
▁require	-9.97015
▁jump	-9.97037
not	-9.97052
wick	-9.97118
▁chart	-9.97209
▁survive	-9.97212
▁starr	-9.97227
▁maintained	-9.9735
▁spoke	-9.97367
▁application	-9.97512
▁flu	-9.97519
▁Sto	-9.97543
mmer	-9.9761
▁contest	-9.97662
▁architect	-9.97665
▁abandoned	-9.97683
▁administration	-9.97683
▁conflict	-9.97683
▁extension	-9.97683
▁illustrat	-9.97683
▁flood	-9.97683
▁jazz	-9.97683
▁urban	-9.97684
▁anything	-9.97687
▁protest	-9.97699
▁courses	-9.97709
▁Davis	-9.97711
▁Jackson	-9.97755
▁Mur	-9.97858
▁nearly	-9.97858
▁collect	-9.97986
▁places	-9.98036
▁Inter	-9.98159
▁offices	-9.98211
▁roll	-9.98282
▁mini	-9.98493
crop	-9.98498
mark	-9.98697
▁Cru	-9.98877
▁growing	-9.98936
▁Tim	-9.98965
▁alternative	-9.99092
▁Junior	-9.99092
▁Avenue	-9.99092
▁lecture	-9.99092
▁opposition	-9.99092
▁peace	-9.99092
▁serving	-9.99092
▁therefore	-9.99092
▁crime	-9.99093
▁daily	-9.99093
▁riding	-9.99095
▁debate	-9.99111
▁characteristic	-9.99125
▁cold	-9.99173
lines	-9.99182
▁Currently	-9.99189
▁finally	-9.99221
▁translated	-9.99236
▁epi	-9.99291
▁Beach	-9.99318
cast	-9.99408
▁ph	-9.99465
▁agreed	-9.9948
▁Kan	-9.99498
pr	-9.99563
▁arrived	-9.99585
▁belong	-9.99592
▁cell	-9.9962
ata	-9.99632
▁mill	-9.99649
sign	-9.9967
▁ships	-9.99705
▁dress	-9.99805
▁defeat	-9.99805
▁Val	-10.0018
ball	-10.0018
▁Prince	-10.0021
▁tried	-10.0023
▁Arts	-10.0026
▁Spi	-10.0031
▁progress	-10.0047
▁secret	-10.0049
▁scholar	-10.005
▁schedule	-10.0052
▁Professor	-10.0052
▁principle	-10.0052
▁silver	-10.0052
▁crowd	-10.0052
▁descent	-10.0053
▁severe	-10.0053
▁residential	-10.0053
▁Division	-10.0054
▁architecture	-10.0054
▁boundary	-10.0054
▁risk	-10.0054
▁conference	-10.0054
▁alone	-10.006
▁hour	-10.0062
▁Joe	-10.0063
▁Spain	-10.0067
▁exam	-10.0071
▁according	-10.0075
▁titles	-10.0082
▁Gal	-10.009
▁engineer	-10.0093
▁draw	-10.0095
▁Play	-10.0096
▁Phil	-10.0102
▁catch	-10.0102
▁singles	-10.0104
▁Tar	-10.0112
▁feeling	-10.0122
▁feel	-10.014
▁pan	-10.0145
round	-10.0147
mor	-10.015
▁reduce	-10.015
arm	-10.0157
▁distinct	-10.0175
▁workers	-10.0176
▁Ham	-10.0182
▁govern	-10.0184
▁Best	-10.0189
▁count	-10.0194
▁Hospital	-10.0197
▁channel	-10.0197
▁exchange	-10.0197
▁circle	-10.0197
▁choice	-10.0197
▁variation	-10.0197
▁cultural	-10.0197
▁chain	-10.0198
▁planned	-10.0199
▁poetry	-10.0204
▁Brook	-10.0206
era	-10.0209
▁rise	-10.0219
▁electronic	-10.0224
▁winning	-10.0227
▁Oak	-10.0227
▁Kong	-10.0227
▁guard	-10.023
▁functions	-10.023
stro	-10.0233
▁Love	-10.0235
▁Jean	-10.0248
▁consider	-10.0252
point	-10.0254
▁pieces	-10.0255
▁reasons	-10.0255
▁whe	-10.0257
▁environment	-10.0267
▁scored	-10.0272
▁suit	-10.0277
▁ste	-10.0284
▁exists	-10.0296
▁Ci	-10.0301
▁Angel	-10.0301
▁slow	-10.0313
▁organ	-10.0314
▁girls	-10.0323
▁sat	-10.0325
ride	-10.0327
▁Lincoln	-10.0344
▁opposed	-10.0344
▁medicine	-10.0344
▁permanent	-10.0344
▁constant	-10.0344
▁roof	-10.0344
▁presence	-10.0344
▁safe	-10.0344
▁buy	-10.0345
▁guide	-10.0346
ada	-10.0348
▁plate	-10.0349
▁Bru	-10.0352
▁Where	-10.0352
▁soldiers	-10.0355
▁grade	-10.0356
▁Team	-10.0356
▁achieved	-10.0363
▁causes	-10.0368
itially	-10.0369
▁cars	-10.0373
▁resulted	-10.0393
▁Camp	-10.0395
▁Whit	-10.0396
uit	-10.0397
ona	-10.0405
▁extend	-10.0422
▁stay	-10.0422
class	-10.0427
To	-10.043
▁Head	-10.0431
▁Bell	-10.0435
ella	-10.0438
▁meant	-10.0442
Th	-10.0456
under	-10.0464
▁resides	-10.0474
▁greater	-10.0476
▁figures	-10.0477
▁earlie	-10.0479
▁tall	-10.0483
scription	-10.0488
▁Kar	-10.049
▁drum	-10.0492
▁Taylor	-10.0493
▁composer	-10.0493
▁sponsor	-10.0493
▁stadium	-10.0493
▁contact	-10.0493
▁Dutch	-10.0493
▁narrow	-10.0493
▁programming	-10.0494
▁Glen	-10.0494
▁Andrew	-10.0499
▁powerful	-10.0501
▁spell	-10.0503
▁chairman	-10.0504
▁Hong	-10.0504
▁formation	-10.0507
▁identified	-10.0508
▁soft	-10.0508
▁roads	-10.0515
▁correct	-10.0517
vit	-10.0525
▁Alex	-10.0526
pul	-10.0529
var	-10.053
lle	-10.0534
▁passes	-10.0538
▁articles	-10.0539
American	-10.0546
hor	-10.0554
▁says	-10.0565
▁Post	-10.0567
▁pet	-10.0568
▁happen	-10.0573
▁bit	-10.0573
▁affected	-10.0577
cap	-10.0592
rich	-10.0595
wer	-10.0604
hood	-10.0606
▁materials	-10.0606
▁Mad	-10.0618
▁engines	-10.062
rang	-10.0624
▁ideas	-10.0624
illa	-10.0626
▁ward	-10.063
▁dogs	-10.0631
cat	-10.0632
▁definition	-10.0645
▁negative	-10.0645
▁Stephen	-10.0645
▁climb	-10.0645
▁variable	-10.0645
▁eleven	-10.0645
▁honour	-10.0645
▁license	-10.0645
▁repair	-10.0645
▁micro	-10.0646
▁pilot	-10.0646
▁failure	-10.0646
▁Battle	-10.0648
▁communication	-10.065
▁learn	-10.0658
▁cells	-10.0658
▁June	-10.066
▁Tro	-10.0664
▁defined	-10.0671
▁occupied	-10.0676
▁classical	-10.0676
▁northeast	-10.0682
▁proper	-10.0682
▁views	-10.0682
▁broken	-10.0684
right	-10.0685
Ha	-10.0696
incorporated	-10.0699
▁Just	-10.0701
▁mass	-10.0709
▁ill	-10.0714
ami	-10.0714
▁soil	-10.0714
▁ride	-10.0715
▁learned	-10.0717
clu	-10.072
comp	-10.0731
▁sits	-10.0749
ender	-10.0753
ame	-10.0766
▁Del	-10.0774
▁Home	-10.0777
▁regions	-10.0781
▁actual	-10.0784
▁Ray	-10.0787
La	-10.0789
▁Albert	-10.0791
▁correspond	-10.0797
▁emerg	-10.0798
▁Elizabeth	-10.0799
▁Sydney	-10.0799
▁orchestra	-10.0799
▁speech	-10.0799
▁clean	-10.0799
▁price	-10.0799
▁root	-10.0799
▁check	-10.0799
▁statue	-10.08
▁criticized	-10.08
▁racing	-10.08
▁arrangement	-10.0801
▁vice	-10.0801
▁task	-10.0802
▁exact	-10.0802
▁tribe	-10.0805
▁heat	-10.0809
▁Instead	-10.0811
▁hang	-10.0811
▁mono	-10.0812
▁solution	-10.0812
▁authority	-10.0815
▁setting	-10.0815
▁Show	-10.0816
▁requires	-10.082
▁rejected	-10.082
▁Dor	-10.0823
▁agricultural	-10.0825
▁Six	-10.0826
list	-10.0827
▁Op	-10.0829
▁organis	-10.0831
▁detail	-10.0833
▁organized	-10.0836
hose	-10.0837
▁Lar	-10.0838
press	-10.0843
▁Trail	-10.0847
arch	-10.0852
▁improved	-10.0856
▁claims	-10.0864
tsu	-10.0865
book	-10.0868
▁attacked	-10.0876
▁episodes	-10.0888
▁sisters	-10.0923
sburg	-10.0929
▁Age	-10.093
ock	-10.095
▁Revolution	-10.0955
▁Swedish	-10.0955
▁easily	-10.0955
▁sleep	-10.0955
▁knew	-10.0955
▁mascot	-10.0955
▁Village	-10.0955
▁patient	-10.0955
▁Arthur	-10.0955
▁memory	-10.0955
▁translation	-10.0955
▁analysis	-10.0955
▁applied	-10.0955
▁Metropolitan	-10.0955
▁rival	-10.0955
▁rescue	-10.0955
▁retirement	-10.0956
▁tank	-10.0956
▁Community	-10.0957
▁Down	-10.0965
▁fan	-10.0972
▁briefly	-10.0988
Do	-10.0994
▁animal	-10.0994
▁gone	-10.1006
▁reduced	-10.1006
▁writers	-10.1007
▁sixth	-10.1008
▁supporter	-10.1009
▁Five	-10.1013
▁employed	-10.1017
▁decades	-10.1024
▁Arch	-10.1027
▁journal	-10.1036
▁refers	-10.104
non	-10.1042
▁destroy	-10.1042
▁suggested	-10.1045
▁businesses	-10.1047
osis	-10.107
▁effective	-10.11
born	-10.1101
▁Kat	-10.1102
▁sales	-10.1106
▁Assembly	-10.1114
▁Similar	-10.1114
▁controversy	-10.1114
▁necessary	-10.1114
▁Captain	-10.1114
▁holiday	-10.1114
▁literary	-10.1114
▁segment	-10.1114
▁judge	-10.1114
▁Field	-10.1114
▁fuel	-10.1114
▁pool	-10.1114
western	-10.1114
▁residence	-10.1115
▁portray	-10.1115
▁Sunday	-10.1116
state	-10.1119
▁Mid	-10.112
▁Wilson	-10.1121
▁Gre	-10.1121
ich	-10.1122
▁warm	-10.1122
▁elder	-10.1127
▁Jim	-10.1127
▁applications	-10.1133
▁Year	-10.1133
▁Additionally	-10.1134
▁Max	-10.1134
Le	-10.1134
▁Ross	-10.1135
▁observed	-10.1136
▁exhibition	-10.1142
▁officers	-10.1148
▁Soon	-10.1181
▁colors	-10.1183
▁Allen	-10.1184
▁Are	-10.1187
▁examples	-10.1198
▁contribute	-10.1203
▁try	-10.1212
▁Sub	-10.1216
bridge	-10.1218
▁bird	-10.1224
▁involve	-10.1224
▁Sen	-10.1225
▁indicate	-10.1227
▁sections	-10.1228
▁Santa	-10.1228
▁locations	-10.1234
key	-10.1236
▁Sol	-10.1244
phy	-10.1249
chin	-10.126
▁visited	-10.1264
▁Brazil	-10.127
▁auto	-10.1273
▁Memorial	-10.1275
▁compound	-10.1275
▁trouble	-10.1275
▁ultimately	-10.1275
▁Empire	-10.1275
▁chemical	-10.1275
▁intended	-10.1275
▁Centre	-10.1275
▁huge	-10.1275
▁inspired	-10.1275
▁denied	-10.1275
▁photo	-10.1275
▁transfer	-10.1275
▁chance	-10.1275
▁Senator	-10.1276
▁Manchester	-10.1276
▁bomb	-10.1282
▁Ker	-10.1301
▁Out	-10.1303
▁theater	-10.1306
nger	-10.1308
▁Fair	-10.1319
▁topic	-10.132
▁technique	-10.1328
▁Whi	-10.1333
▁Fri	-10.1347
▁Place	-10.1355
▁Den	-10.1358
▁Commission	-10.136
▁drink	-10.137
▁founding	-10.1371
▁Asian	-10.1374
▁sit	-10.1376
fall	-10.1376
▁Vice	-10.1383
hop	-10.1385
▁Tour	-10.1385
hand	-10.139
▁tea	-10.1391
▁strongly	-10.1407
lov	-10.1429
▁domestic	-10.1439
▁affiliate	-10.1439
▁combination	-10.1439
▁perfect	-10.1439
▁supply	-10.1439
▁visible	-10.1439
▁Major	-10.1439
▁Bishop	-10.1439
▁storm	-10.1439
▁venue	-10.1439
▁appeal	-10.1439
▁Corporation	-10.1439
bur	-10.144
▁fought	-10.144
▁phase	-10.144
▁childhood	-10.144
▁occurred	-10.1441
▁Light	-10.1442
▁varies	-10.1442
▁singing	-10.1444
▁Why	-10.1446
▁declared	-10.1449
▁hosted	-10.145
▁overall	-10.1455
▁Gri	-10.1461
▁coming	-10.1475
▁listen	-10.1477
▁pop	-10.1485
▁Bla	-10.1495
iff	-10.1496
nell	-10.1501
▁lit	-10.1501
▁dam	-10.1512
▁learning	-10.1513
▁competed	-10.1519
▁scenes	-10.152
tten	-10.1522
▁vehicles	-10.1527
▁suffer	-10.1534
▁walls	-10.1535
▁Israel	-10.1539
▁Mont	-10.154
▁churches	-10.1545
▁Ger	-10.155
▁mention	-10.155
▁transform	-10.1556
hon	-10.156
most	-10.1563
▁details	-10.1573
▁graduate	-10.1574
▁reading	-10.1576
rip	-10.158
Y	-10.1591
▁favor	-10.1598
▁differ	-10.16
▁Muslim	-10.1606
▁chapter	-10.1606
▁circuit	-10.1606
▁heavily	-10.1606
▁Studio	-10.1606
▁Common	-10.1606
▁request	-10.1606
▁genre	-10.1606
vision	-10.1606
▁folk	-10.1607
▁Daniel	-10.1607
▁transferred	-10.1607
band	-10.1607
▁phone	-10.1609
▁Senate	-10.1609
▁appearances	-10.161
▁cycle	-10.1614
▁engaged	-10.1619
▁Wor	-10.1619
▁Roger	-10.1619
▁Fox	-10.1623
▁compete	-10.1643
▁filled	-10.1654
▁Fish	-10.166
ense	-10.166
▁normally	-10.166
▁increasing	-10.1671
▁hosts	-10.1678
▁minutes	-10.168
▁collected	-10.1692
▁mix	-10.1704
master	-10.1705
pot	-10.1706
pre	-10.1716
▁cra	-10.1717
▁Hart	-10.1717
▁hero	-10.1718
star	-10.1726
▁Cam	-10.173
aga	-10.1732
Ar	-10.1743
Lo	-10.1746
▁rear	-10.1747
ado	-10.1751
▁web	-10.176
mat	-10.1763
uebec	-10.1775
▁Festival	-10.1775
▁October	-10.1775
▁acquired	-10.1775
▁approximate	-10.1775
▁expansion	-10.1775
▁qualified	-10.1775
▁religion	-10.1775
▁worldwide	-10.1775
▁stood	-10.1775
▁variant	-10.1775
▁fixed	-10.1775
▁strike	-10.1775
▁properties	-10.1776
▁faith	-10.1776
▁average	-10.1776
▁goals	-10.1778
▁relations	-10.178
▁Berlin	-10.1781
▁Ann	-10.1788
▁prisoner	-10.1788
▁afterwards	-10.1811
▁Fire	-10.1817
loc	-10.182
▁foundation	-10.182
oli	-10.1834
▁attracted	-10.1844
aff	-10.1852
▁weight	-10.1854
▁vehicle	-10.1855
cycl	-10.1892
▁row	-10.1892
come	-10.1901
▁layer	-10.1905
▁performing	-10.1908
▁pu	-10.1908
▁fans	-10.1909
▁Sin	-10.191
terred	-10.1921
▁Yu	-10.1924
▁Ven	-10.1927
▁farmer	-10.1929
▁association	-10.1947
▁monument	-10.1947
▁sequence	-10.1947
▁somewhat	-10.1947
▁surprise	-10.1947
▁encourage	-10.1947
▁Hamilton	-10.1947
▁royal	-10.1947
▁contrast	-10.1947
▁vessel	-10.1947
▁scheme	-10.1947
▁easy	-10.1948
▁wealth	-10.1948
▁fear	-10.1948
▁Point	-10.1949
▁Theatre	-10.1949
▁cancer	-10.195
▁criticism	-10.195
▁continuous	-10.195
profit	-10.195
▁representative	-10.195
▁visitors	-10.1951
▁bright	-10.1951
▁safety	-10.1952
▁plot	-10.1953
▁distributed	-10.1956
ui	-10.1961
▁curve	-10.1963
▁zone	-10.1964
▁send	-10.1968
▁chosen	-10.1972
ivity	-10.1975
▁boys	-10.1992
mount	-10.1995
ei	-10.1999
▁counter	-10.2002
▁conducted	-10.2006
▁southwest	-10.2025
▁express	-10.2031
▁Cur	-10.2031
▁candidate	-10.2036
▁begin	-10.204
▁elections	-10.2057
▁List	-10.2066
▁individuals	-10.2072
▁advance	-10.2075
▁Clark	-10.2088
cia	-10.2095
▁frequent	-10.2095
▁lay	-10.2099
▁farming	-10.2107
▁Shar	-10.2109
▁Arm	-10.2114
pass	-10.2117
▁pack	-10.2118
▁Francis	-10.2119
▁merchant	-10.2123
▁opinion	-10.2123
▁swimming	-10.2123
▁Together	-10.2123
▁drain	-10.2123
▁historian	-10.2123
▁everything	-10.2123
▁conservative	-10.2123
▁solid	-10.2123
▁desert	-10.2123
▁patron	-10.2124
▁importance	-10.2124
▁Falls	-10.2125
▁Though	-10.2127
▁efforts	-10.2128
▁Prime	-10.2131
bat	-10.2131
▁Seven	-10.2132
▁alongside	-10.2133
▁borders	-10.2135
▁habitat	-10.2137
▁promote	-10.2138
gno	-10.2139
▁gla	-10.215
▁Bor	-10.2159
face	-10.2168
▁Tam	-10.2179
▁challenge	-10.2182
ida	-10.2183
▁Tan	-10.219
▁formal	-10.2191
▁Due	-10.2193
▁twin	-10.2198
eth	-10.2202
▁myth	-10.2202
craft	-10.2202
▁attract	-10.2204
▁load	-10.2205
▁drawing	-10.2207
▁fla	-10.2208
▁paintings	-10.221
▁Yo	-10.2218
▁ask	-10.222
count	-10.223
oma	-10.2231
▁agree	-10.2254
▁Sur	-10.2267
▁inform	-10.2286
▁organizations	-10.2291
▁municipal	-10.2295
ela	-10.2299
▁opera	-10.23
▁demonstrat	-10.2301
▁advantage	-10.2301
▁cemetery	-10.2301
▁hockey	-10.2301
▁industries	-10.2301
▁philosophy	-10.2301
▁thereafter	-10.2301
▁volunteer	-10.2301
▁proposal	-10.2301
▁Labour	-10.2301
▁nominated	-10.2301
▁ticket	-10.2301
▁Women	-10.2301
▁expert	-10.2301
▁resembl	-10.2302
▁golf	-10.2302
▁Championship	-10.2302
▁entrance	-10.2303
▁Small	-10.2304
▁playlist	-10.2305
ographic	-10.2305
▁brick	-10.2306
▁agreement	-10.2308
▁otherwise	-10.231
eastern	-10.2311
▁Golden	-10.2312
lac	-10.2314
▁Anti	-10.2317
stall	-10.2318
▁Harry	-10.2325
aya	-10.2328
▁decide	-10.233
nan	-10.2331
▁promotion	-10.2332
▁fit	-10.2336
▁advanced	-10.235
▁continu	-10.2354
mel	-10.237
ique	-10.2372
An	-10.2389
▁alter	-10.2399
▁Hay	-10.2417
type	-10.2422
▁Vari	-10.2422
zer	-10.2424
▁Moon	-10.2424
▁establish	-10.2437
▁Vol	-10.244
▁filmed	-10.2442
▁Dom	-10.2453
Ra	-10.2457
▁income	-10.2458
▁Coll	-10.2462
▁demo	-10.2466
kar	-10.2468
▁Ob	-10.2469
ori	-10.2477
▁predominant	-10.2483
▁Province	-10.2483
▁algorithm	-10.2483
▁coffee	-10.2483
▁ethnic	-10.2483
▁register	-10.2483
▁injuries	-10.2483
▁injury	-10.2483
▁Modern	-10.2483
▁orange	-10.2485
▁lawyer	-10.2485
▁shopping	-10.2485
▁existence	-10.2486
▁whom	-10.249
▁Wan	-10.249
▁moving	-10.249
▁Fred	-10.2493
ira	-10.2496
▁discussion	-10.2497
▁manufacturer	-10.2499
hold	-10.2503
Bo	-10.2514
▁declined	-10.2518
▁sexual	-10.2518
▁distinguished	-10.2521
▁obtained	-10.2522
wan	-10.2523
▁painter	-10.2528
met	-10.2536
▁Nick	-10.2539
fold	-10.2541
▁retained	-10.2542
▁Within	-10.2547
▁journalist	-10.2569
atic	-10.2571
tail	-10.2572
▁linked	-10.2583
▁Stone	-10.2596
▁launch	-10.2596
▁attempts	-10.2604
shaped	-10.2608
gran	-10.2609
▁exception	-10.2612
▁Marine	-10.2628
▁brief	-10.2629
▁weapons	-10.2632
▁Cul	-10.2639
▁Steve	-10.2647
cor	-10.2649
chu	-10.2662
▁Colorado	-10.2668
▁Missouri	-10.2668
▁Tennessee	-10.2668
▁Vietnam	-10.2668
▁acclaim	-10.2668
▁advocate	-10.2668
▁alcohol	-10.2668
▁benefit	-10.2668
▁liberal	-10.2668
▁substantial	-10.2668
▁supplie	-10.2668
▁sustain	-10.2668
▁territory	-10.2668
▁System	-10.2668
▁audience	-10.2668
▁shift	-10.2668
▁plain	-10.2669
▁nomination	-10.2669
▁knowledge	-10.2669
▁Film	-10.2669
▁promise	-10.2669
▁suspect	-10.267
▁devot	-10.267
▁Miami	-10.267
▁shall	-10.267
▁spend	-10.2674
▁slave	-10.2676
▁Tor	-10.2677
▁cook	-10.2682
▁fled	-10.2683
gor	-10.2683
▁fired	-10.2684
▁Regional	-10.2688
▁expression	-10.269
▁Poland	-10.2694
▁assum	-10.2697
udi	-10.2701
▁bio	-10.2703
▁cool	-10.2718
▁Pass	-10.2719
▁fur	-10.2734
▁southeast	-10.2739
▁Kur	-10.2745
▁damaged	-10.2756
arian	-10.2765
▁Chris	-10.2767
▁Games	-10.2775
active	-10.2775
▁Prior	-10.2791
▁hydro	-10.2801
▁notes	-10.2808
mble	-10.281
fish	-10.2826
▁electric	-10.2829
ogen	-10.2834
hel	-10.2843
▁App	-10.2845
▁Marc	-10.2846
▁Egypt	-10.2852
▁sal	-10.2854
iro	-10.2855
▁fresh	-10.2856
▁Foundation	-10.2857
▁Meanwhile	-10.2857
▁equivalent	-10.2857
▁politician	-10.2857
▁surviving	-10.2857
▁universities	-10.2857
▁Detroit	-10.2857
▁Hollywood	-10.2857
▁Russell	-10.2857
▁Stadium	-10.2857
▁parallel	-10.2857
▁sharp	-10.2857
▁gift	-10.2857
▁gather	-10.2857
▁moderate	-10.2859
▁Add	-10.2859
mag	-10.2859
▁talent	-10.2859
▁accessible	-10.286
▁thick	-10.2861
▁internal	-10.2861
▁Garden	-10.2863
▁publication	-10.2867
▁arrive	-10.2871
▁grandfather	-10.2873
▁greatest	-10.2878
▁cup	-10.2884
▁factory	-10.2886
▁drop	-10.2887
▁insect	-10.289
▁joint	-10.2891
▁branches	-10.2893
▁Para	-10.2897
eng	-10.2904
▁painted	-10.2911
read	-10.2914
▁expected	-10.2916
▁Dam	-10.2916
▁Once	-10.2916
▁extensively	-10.2917
▁skin	-10.2924
▁flying	-10.2925
▁Miller	-10.2929
▁Miss	-10.2942
onic	-10.2943
▁borough	-10.295
direct	-10.2952
▁educational	-10.2955
▁mat	-10.2959
▁issued	-10.2965
▁Wild	-10.2966
where	-10.2968
▁Nav	-10.2973
▁Any	-10.2979
onia	-10.2988
bout	-10.3001
▁developing	-10.3003
mill	-10.3017
▁sn	-10.3022
gram	-10.3025
ander	-10.3031
▁Islam	-10.3041
▁ordered	-10.3042
▁publish	-10.3043
▁drama	-10.3045
▁Kentucky	-10.3049
▁Minnesota	-10.3049
▁Moscow	-10.3049
▁constituency	-10.3049
▁decrease	-10.3049
▁opposite	-10.3049
▁Dublin	-10.3049
▁Sweden	-10.3049
▁digital	-10.3049
▁encounter	-10.3049
▁headquartered	-10.3049
▁bicycle	-10.3049
▁beyond	-10.3049
▁visual	-10.3049
▁trust	-10.3049
▁heritage	-10.305
▁restored	-10.305
▁stopped	-10.305
▁string	-10.305
▁Summer	-10.3051
▁operator	-10.3051
▁Power	-10.3053
▁leadership	-10.3055
▁Mississippi	-10.3056
▁Corn	-10.3057
▁Moore	-10.3057
▁Lady	-10.3066
maker	-10.3068
▁pink	-10.3069
▁brain	-10.3071
▁distinction	-10.3072
▁combined	-10.3073
▁greatly	-10.3073
▁consistent	-10.3074
▁investigation	-10.3074
▁Master	-10.3076
▁attraction	-10.3078
dom	-10.3079
chem	-10.309
▁Lane	-10.3097
ello	-10.3113
▁publications	-10.3121
eau	-10.3121
▁statement	-10.313
▁scar	-10.3133
▁Live	-10.3148
▁hole	-10.3149
aged	-10.3153
▁coal	-10.3167
▁van	-10.3176
▁Lin	-10.3179
▁Lam	-10.3184
▁vocal	-10.319
Sh	-10.3198
▁Your	-10.3199
▁sentence	-10.3202
▁separated	-10.3214
▁Count	-10.3219
plat	-10.3222
▁Sm	-10.3222
▁prop	-10.3224
▁seemed	-10.3225
▁fin	-10.3228
wise	-10.3232
▁strength	-10.3237
▁belongs	-10.3237
▁Sar	-10.324
rand	-10.3244
▁essential	-10.3245
▁Connecticut	-10.3245
▁Philadelphia	-10.3245
▁context	-10.3245
▁immigrant	-10.3245
▁rebuilt	-10.3245
▁scientific	-10.3245
▁Atlantic	-10.3245
▁migrat	-10.3245
▁inhabitants	-10.3246
▁Kansas	-10.3246
▁terminal	-10.3246
▁Sometimes	-10.3246
▁resistance	-10.3247
▁switch	-10.3247
▁labor	-10.3247
▁Silver	-10.3248
▁Francisco	-10.3249
▁Low	-10.325
timat	-10.3252
▁doesn	-10.3255
▁sort	-10.3257
▁Originally	-10.3258
▁Oh	-10.3259
▁Norman	-10.326
giving	-10.3262
▁cave	-10.3263
▁creation	-10.3264
▁commander	-10.3267
▁preserved	-10.3282
hn	-10.3295
▁Steel	-10.3312
but	-10.3313
▁explor	-10.3321
▁rap	-10.3325
▁discover	-10.3341
▁stayed	-10.3341
▁Media	-10.3361
lec	-10.3362
▁Pur	-10.3362
▁fly	-10.3367
aker	-10.3378
▁tape	-10.3378
▁techniques	-10.3379
▁letters	-10.338
▁plane	-10.339
place	-10.3394
▁Times	-10.3394
▁dispute	-10.3398
print	-10.3398
▁travell	-10.3401
▁capture	-10.3402
▁Mass	-10.3408
▁Rand	-10.3411
▁Jane	-10.3411
▁Austria	-10.3414
▁Farm	-10.3415
▁investigat	-10.342
oke	-10.3429
heim	-10.3436
▁Pakistan	-10.3445
▁Research	-10.3445
▁September	-10.3445
▁Singapore	-10.3445
▁accompanied	-10.3445
▁beautiful	-10.3445
▁cricket	-10.3445
▁junior	-10.3445
▁mechanism	-10.3445
▁soccer	-10.3445
▁portrait	-10.3445
▁equation	-10.3446
▁Statistica	-10.3446
▁error	-10.3446
▁affair	-10.3446
▁outdoor	-10.3446
▁varied	-10.3446
▁charity	-10.3446
▁Girl	-10.3446
▁sculpture	-10.3446
▁resort	-10.3446
▁drag	-10.3446
▁grey	-10.3447
▁Jesus	-10.3447
▁Police	-10.3447
▁Kin	-10.3448
▁pain	-10.3448
▁Polish	-10.3449
▁tele	-10.3449
▁secretary	-10.345
▁items	-10.3451
▁push	-10.3452
▁Upper	-10.3452
▁cult	-10.3455
▁Coast	-10.3456
▁Metro	-10.3458
▁earth	-10.3461
▁crystal	-10.3465
ancy	-10.347
lex	-10.3471
J	-10.3472
▁rod	-10.3487
vol	-10.3489
iel	-10.3493
tech	-10.3497
▁contribution	-10.3502
▁Guy	-10.3503
▁titled	-10.3512
▁Iran	-10.3518
olog	-10.3534
▁Sil	-10.3539
lane	-10.3542
▁lose	-10.3542
▁dressed	-10.3548
writer	-10.3551
friend	-10.3551
borough	-10.3551
rai	-10.3563
▁protected	-10.3564
▁prepar	-10.3564
▁Clo	-10.3567
bound	-10.358
▁wait	-10.3581
▁stat	-10.3583
▁faced	-10.3586
verse	-10.3587
▁fail	-10.3589
▁traditionally	-10.3589
kov	-10.3594
▁Hard	-10.3595
▁showed	-10.3599
▁Gene	-10.3608
▁Beck	-10.3621
▁Lind	-10.3621
▁Office	-10.3624
▁improve	-10.3627
▁resident	-10.3628
gui	-10.3633
▁Univers	-10.3645
▁Conservative	-10.365
▁decorated	-10.365
▁deploy	-10.365
▁exercise	-10.365
▁smooth	-10.365
▁dream	-10.365
▁wild	-10.365
▁enemy	-10.365
ibility	-10.365
▁Christmas	-10.365
▁regiment	-10.365
▁tennis	-10.3651
▁secure	-10.3651
▁shut	-10.3651
▁mineral	-10.3652
▁uncle	-10.3656
▁considerable	-10.3657
▁Ward	-10.3658
▁downtown	-10.3658
▁Maryland	-10.366
▁trap	-10.3661
▁Life	-10.3662
▁arranged	-10.3663
▁Sports	-10.3665
▁Howard	-10.3669
▁log	-10.3671
poli	-10.3677
▁Mun	-10.3692
▁recovered	-10.3694
▁confirmed	-10.3698
▁slowly	-10.3704
Ne	-10.3706
▁tools	-10.3712
rig	-10.3717
▁determined	-10.3717
▁ruled	-10.3727
▁apply	-10.373
▁ideal	-10.3745
▁happened	-10.3748
▁bone	-10.3749
▁elect	-10.375
Ho	-10.3751
▁March	-10.3752
▁core	-10.378
▁charged	-10.3781
U	-10.3786
▁instrumental	-10.379
▁breed	-10.379
▁Hunt	-10.3816
horn	-10.3817
▁subsequent	-10.3819
▁pin	-10.382
aph	-10.3832
ground	-10.3835
▁collaborat	-10.3842
▁ban	-10.3844
▁Democrat	-10.3848
▁Harris	-10.3855
▁citizen	-10.3856
▁behavior	-10.3858
▁bottom	-10.3858
▁thirty	-10.3858
▁witness	-10.3858
▁Montreal	-10.3858
▁injured	-10.3858
▁Hindu	-10.3858
▁resigned	-10.3858
▁doubt	-10.3858
▁Anderson	-10.3858
▁alternate	-10.3858
▁planning	-10.3858
▁else	-10.3859
▁trace	-10.3859
▁gear	-10.386
▁pot	-10.3861
▁classified	-10.3862
▁underground	-10.3863
▁Walter	-10.3865
▁panel	-10.3869
▁tourism	-10.3872
▁protection	-10.3875
▁motion	-10.3875
▁Open	-10.3879
▁crossing	-10.3879
▁Wolf	-10.3881
▁rapidly	-10.3886
▁purchased	-10.3886
▁wounded	-10.3892
vern	-10.3897
▁Steven	-10.39
▁popularity	-10.3902
▁Hal	-10.3905
▁touch	-10.3915
▁acted	-10.3917
Con	-10.3924
▁Dal	-10.3926
▁revealed	-10.3927
▁settlers	-10.3942
▁undergo	-10.3947
▁trying	-10.3948
▁candidates	-10.3962
▁environmental	-10.3968
▁July	-10.3977
▁Burn	-10.3981
gh	-10.3982
▁Lang	-10.3985
▁conduct	-10.3988
▁resources	-10.3989
cca	-10.3991
life	-10.3995
▁dot	-10.3997
level	-10.3998
▁expand	-10.3999
▁Test	-10.4002
▁bag	-10.4007
position	-10.4011
box	-10.4022
▁Maria	-10.4023
▁Dy	-10.403
▁cre	-10.4035
▁Gil	-10.4035
▁struggle	-10.4038
Go	-10.4043
▁Helen	-10.4051
▁threat	-10.4059
▁effort	-10.4064
▁beat	-10.4065
▁Ur	-10.4067
▁Nevertheless	-10.4071
▁ceremony	-10.4071
▁global	-10.4071
▁opponent	-10.4071
▁procedure	-10.4071
▁suicide	-10.4071
▁tunnel	-10.4071
▁Margaret	-10.4071
▁reputation	-10.4071
▁unusual	-10.4071
▁investment	-10.4071
▁strict	-10.4071
▁crown	-10.4071
▁Trust	-10.4071
▁excellent	-10.4071
▁installed	-10.4072
▁bought	-10.4072
▁Hawk	-10.4072
▁gate	-10.4073
▁sought	-10.4073
▁magic	-10.4075
▁Historically	-10.4075
▁Norway	-10.4076
▁laugh	-10.4077
isation	-10.4078
▁authorities	-10.4078
zon	-10.4079
▁remainder	-10.408
▁everyone	-10.4083
▁designat	-10.4085
▁Tony	-10.4085
aught	-10.4087
▁exile	-10.409
▁Subsequently	-10.4091
▁organisation	-10.4093
▁Walker	-10.4093
▁Luc	-10.4097
▁Holy	-10.4098
▁Cape	-10.41
▁guy	-10.4102
▁participate	-10.4109
▁vocals	-10.4118
▁tube	-10.4121
stand	-10.4125
▁shore	-10.413
▁occasions	-10.4137
smith	-10.4143
▁Indiana	-10.4153
enberg	-10.4161
view	-10.4173
▁lock	-10.4178
Al	-10.4181
▁miles	-10.4185
free	-10.4191
▁craft	-10.4193
Se	-10.4199
▁Students	-10.4205
▁Iron	-10.4207
▁End	-10.4214
▁reveal	-10.4216
▁Lan	-10.4222
▁understand	-10.4225
▁sole	-10.4232
▁Have	-10.4243
▁factors	-10.425
▁existing	-10.4264
▁Dave	-10.427
▁genera	-10.4275
▁Mexican	-10.4288
▁November	-10.4288
▁executed	-10.4288
▁independence	-10.4288
▁knock	-10.4288
▁siblings	-10.4288
▁soundtrack	-10.4288
▁Hawaii	-10.4288
▁Wisconsin	-10.4288
▁biggest	-10.4288
▁uniform	-10.4288
▁quot	-10.4288
▁Justice	-10.4289
▁Production	-10.4289
▁Patrick	-10.4289
▁grand	-10.4289
▁argue	-10.429
▁Program	-10.429
▁Morgan	-10.4292
▁Night	-10.4292
▁steam	-10.4293
▁counties	-10.4294
▁Alice	-10.4299
▁nest	-10.4301
▁guitarist	-10.4306
▁hired	-10.4307
▁wooden	-10.431
▁manufactured	-10.4312
▁Korean	-10.4315
▁pub	-10.4315
▁noise	-10.4325
▁seek	-10.4339
▁Band	-10.4339
▁Ball	-10.4351
▁Barn	-10.4354
yan	-10.4357
cock	-10.4357
▁prepared	-10.4365
▁Nation	-10.4367
▁grown	-10.4368
▁rarely	-10.438
Di	-10.4383
fort	-10.4387
▁entering	-10.441
▁Jan	-10.4411
stead	-10.4416
cco	-10.4431
▁god	-10.4435
▁Key	-10.4437
▁convention	-10.4438
▁retain	-10.4439
▁remember	-10.4445
q	-10.4449
▁talking	-10.4454
ille	-10.446
▁incorporated	-10.4471
▁manage	-10.4496
▁Engineer	-10.451
▁Matthew	-10.451
▁Netherlands	-10.451
▁Norwegian	-10.451
▁bronze	-10.451
▁category	-10.451
▁frequency	-10.451
▁happy	-10.451
▁truck	-10.451
▁Oregon	-10.451
▁attached	-10.451
▁phrase	-10.451
▁retreat	-10.451
▁Square	-10.451
▁straight	-10.451
▁Colonel	-10.451
▁Premier	-10.451
▁Senior	-10.451
▁choose	-10.451
▁prime	-10.451
▁dinner	-10.451
▁message	-10.451
▁funeral	-10.451
▁reign	-10.4512
▁instance	-10.4512
▁sugar	-10.4513
▁weekend	-10.4513
▁Top	-10.4514
▁carbon	-10.4516
▁crash	-10.4517
▁finger	-10.4522
▁Right	-10.4523
scope	-10.4523
▁selection	-10.4524
▁bond	-10.4524
▁aspects	-10.4529
▁mar	-10.4529
▁youngest	-10.4537
▁airline	-10.4543
▁mental	-10.4545
Li	-10.4548
▁saying	-10.455
▁feet	-10.4553
vor	-10.4558
It	-10.4559
test	-10.4565
▁chas	-10.4566
▁bowl	-10.4567
We	-10.4568
plane	-10.457
▁cable	-10.4572
▁Bow	-10.4575
▁Run	-10.4576
▁cru	-10.4579
▁speaker	-10.4579
▁Cap	-10.4579
▁Rich	-10.4581
▁lift	-10.4593
yne	-10.4597
▁launched	-10.4598
▁Take	-10.4599
▁Sel	-10.4616
Mar	-10.4621
how	-10.4634
▁Marie	-10.4666
▁Grove	-10.4667
▁pursue	-10.4682
ference	-10.4693
▁diver	-10.4695
range	-10.4696
▁Var	-10.4703
▁chose	-10.471
▁por	-10.4711
rell	-10.4712
▁evening	-10.4723
▁parliament	-10.4725
▁Kir	-10.4726
▁Son	-10.473
▁speaking	-10.4738
▁Economic	-10.4738
▁Elementary	-10.4738
▁Portuguese	-10.4738
▁identity	-10.4738
▁myself	-10.4738
▁occupation	-10.4738
▁unsuccessful	-10.4738
▁Emperor	-10.4738
▁Federation	-10.4738
▁Ministry	-10.4738
▁sample	-10.4738
▁Iraq	-10.4738
▁Lawrence	-10.4738
▁Special	-10.4738
▁nurse	-10.4738
▁producing	-10.4738
▁milk	-10.4738
▁mistake	-10.4738
▁worn	-10.4738
▁assigned	-10.4738
▁zero	-10.4738
▁Conference	-10.474
▁classification	-10.4741
▁gene	-10.4743
▁Labor	-10.4743
▁Country	-10.4743
▁Corps	-10.4744
▁moral	-10.475
▁sight	-10.4753
▁Finally	-10.4754
▁eliminated	-10.4755
▁advertising	-10.4759
▁sir	-10.4761
▁Buck	-10.4768
▁divorced	-10.477
▁pol	-10.4775
▁clothing	-10.4777
▁repeated	-10.4777
load	-10.4791
▁remembered	-10.4812
▁breeding	-10.4813
▁Press	-10.4815
▁specialist	-10.4817
▁mut	-10.4826
wit	-10.4837
some	-10.4839
▁rose	-10.4841
▁rough	-10.4853
▁lie	-10.4861
▁processes	-10.487
▁Ky	-10.487
build	-10.4872
▁attempted	-10.4877
New	-10.4877
▁killing	-10.4878
▁salt	-10.4879
▁finding	-10.4886
▁expect	-10.4898
▁thin	-10.4901
boat	-10.4904
▁Plan	-10.4911
▁rob	-10.4912
▁pole	-10.492
▁publicly	-10.4922
▁Mol	-10.4935
▁Region	-10.4946
▁formula	-10.4947
▁possess	-10.4954
▁Monte	-10.4954
▁Social	-10.4961
▁Call	-10.4963
▁Alabama	-10.497
▁Saturday	-10.497
▁Thompson	-10.497
▁argument	-10.497
▁chapel	-10.497
▁defensive	-10.497
▁identify	-10.497
▁journey	-10.497
▁memorial	-10.497
▁strategy	-10.497
▁Tokyo	-10.497
▁continent	-10.497
▁Jacob	-10.497
▁balance	-10.497
▁bodies	-10.497
▁domain	-10.497
▁housing	-10.497
▁apartment	-10.497
tries	-10.497
▁stick	-10.4971
▁introduction	-10.4971
▁combat	-10.4972
▁favorite	-10.4974
▁dramatic	-10.4975
▁baby	-10.4976
▁export	-10.4976
▁distinctive	-10.4978
▁medium	-10.4979
▁comedy	-10.4981
▁delay	-10.4983
▁seal	-10.4984
▁Sound	-10.4985
▁loan	-10.4989
▁attributed	-10.4991
▁sum	-10.5
▁Eight	-10.5001
▁fleet	-10.5003
▁element	-10.5004
brook	-10.5009
▁recommended	-10.501
▁Bird	-10.5013
▁net	-10.5017
grav	-10.5018
▁Twi	-10.5018
▁Kit	-10.5021
▁pursu	-10.5028
elle	-10.5034
hear	-10.5036
▁Wall	-10.5038
▁sale	-10.5054
▁mouth	-10.5068
▁dancer	-10.5095
▁treated	-10.5097
▁publisher	-10.5105
mouth	-10.5109
▁Eli	-10.5113
weight	-10.5115
▁Ep	-10.5129
▁audio	-10.5143
▁reside	-10.5144
▁Medica	-10.5158
▁Lion	-10.5163
▁tire	-10.5171
▁dish	-10.5172
▁sky	-10.5172
▁interpret	-10.5195
▁neighbor	-10.5208
▁Hungary	-10.5208
▁Liverpool	-10.5208
▁appointment	-10.5208
▁athletic	-10.5208
▁dynamic	-10.5208
▁fifteen	-10.5208
▁liquid	-10.5208
▁neither	-10.5208
▁nephew	-10.5208
▁replied	-10.5208
▁truth	-10.5208
▁influential	-10.5208
▁Secretary	-10.5208
▁external	-10.5208
▁Temple	-10.5208
▁slope	-10.5208
▁withdraw	-10.5208
▁capacity	-10.5208
▁afternoon	-10.5208
▁Marshall	-10.5208
▁wedding	-10.5208
▁Cooper	-10.5208
▁Eagle	-10.5208
▁smile	-10.5209
▁Critic	-10.5209
▁boundaries	-10.5209
▁landscape	-10.5209
▁enroll	-10.521
▁Horse	-10.521
▁employee	-10.521
▁elementary	-10.5211
▁preced	-10.5211
▁funding	-10.5213
▁theories	-10.5216
▁bench	-10.5216
▁coins	-10.5218
▁highlight	-10.5218
▁Players	-10.5225
tell	-10.5226
▁Palm	-10.5226
▁apparently	-10.5227
▁exclusively	-10.5229
▁Ful	-10.5229
You	-10.5233
term	-10.5233
▁factor	-10.5239
▁Anne	-10.5243
▁controlled	-10.5245
▁Rad	-10.5246
▁originated	-10.525
▁stem	-10.5253
ule	-10.5255
▁weapon	-10.5255
hall	-10.526
▁Boo	-10.5272
agh	-10.5281
▁testing	-10.5281
▁Bun	-10.5285
▁poll	-10.5288
▁marine	-10.5288
▁meat	-10.529
▁Anna	-10.5295
▁Simon	-10.5301
roll	-10.5305
▁Sim	-10.5308
▁Grant	-10.5325
▁Spa	-10.5326
▁clearly	-10.5327
▁fee	-10.5327
▁bound	-10.5329
▁Whe	-10.5336
▁victims	-10.5336
▁span	-10.5353
power	-10.5362
▁bay	-10.5365
aki	-10.5371
style	-10.5376
▁Ul	-10.5381
▁grant	-10.5381
boro	-10.5384
▁gu	-10.5388
▁Alan	-10.5402
▁quick	-10.5415
gna	-10.5433
▁existed	-10.5436
▁elde	-10.5439
▁spirit	-10.5451
▁Municipal	-10.5452
▁Jordan	-10.5452
▁Railroad	-10.5452
▁Switzerland	-10.5452
▁Unfortunately	-10.5452
▁dancing	-10.5452
▁demolished	-10.5452
▁expedition	-10.5452
▁manuscript	-10.5452
▁observation	-10.5452
▁perspective	-10.5452
▁recruit	-10.5452
digenous	-10.5452
▁chamber	-10.5452
▁Hampshire	-10.5452
▁athlete	-10.5452
▁fashion	-10.5452
▁illegal	-10.5452
▁Channel	-10.5452
▁protein	-10.5452
▁remote	-10.5452
▁please	-10.5452
▁grain	-10.5452
▁quiet	-10.5452
▁Melbourne	-10.5453
▁imagin	-10.5453
▁spiritual	-10.5453
▁cinema	-10.5453
▁solve	-10.5454
▁Belgium	-10.5455
▁caught	-10.5456
▁Often	-10.5456
▁graphic	-10.5456
▁relief	-10.5458
▁Space	-10.5458
▁Tower	-10.5459
▁Still	-10.5459
▁harm	-10.5461
hawk	-10.5461
sphere	-10.5463
▁specialized	-10.5465
chester	-10.5467
▁McG	-10.5471
▁ability	-10.5474
▁Eu	-10.5486
▁Ever	-10.5503
▁prove	-10.5504
▁spoken	-10.5511
▁Gen	-10.5525
▁Gran	-10.5533
▁planet	-10.5541
▁annually	-10.5543
▁Bull	-10.5547
▁bath	-10.5547
▁Khan	-10.5561
meter	-10.5564
▁pale	-10.5571
▁flower	-10.5588
mission	-10.5595
▁Sri	-10.5604
▁notice	-10.5605
bird	-10.5609
▁Barb	-10.5627
▁Cou	-10.5628
▁arrest	-10.563
▁Cook	-10.5634
▁shoulder	-10.5636
▁Ski	-10.5637
▁hunt	-10.5637
▁Lev	-10.5639
▁Rain	-10.564
▁decline	-10.5655
▁temp	-10.5682
▁fill	-10.5686
▁Matt	-10.5696
▁favour	-10.5699
blo	-10.57
▁Supreme	-10.5702
▁agencies	-10.5702
▁criminal	-10.5702
▁locomotive	-10.5702
▁reception	-10.5702
▁rugby	-10.5702
▁uncertain	-10.5702
▁widespread	-10.5702
▁fundamental	-10.5702
▁Alfred	-10.5702
▁archaeolog	-10.5702
▁Houston	-10.5702
▁Malaysia	-10.5702
▁Welsh	-10.5702
▁patent	-10.5702
▁Brooklyn	-10.5702
▁sweet	-10.5702
▁defense	-10.5703
▁Children	-10.5703
cott	-10.5703
▁neck	-10.5703
▁interaction	-10.5703
▁loose	-10.5704
▁keyboard	-10.5705
▁scholarship	-10.5705
▁sector	-10.5707
▁Native	-10.5707
▁Scout	-10.5709
▁missing	-10.5711
▁Jeff	-10.5713
▁rim	-10.5715
▁Baker	-10.5718
▁transportation	-10.5722
▁manual	-10.5724
▁classic	-10.5725
▁Nico	-10.5726
▁Crown	-10.5726
▁praised	-10.5732
▁withdrew	-10.5737
▁cash	-10.574
▁longest	-10.5751
▁representation	-10.5754
pati	-10.5771
▁dri	-10.5771
▁Record	-10.5777
▁Range	-10.5787
▁teach	-10.5791
▁None	-10.5792
▁height	-10.5793
▁Jam	-10.5809
▁bike	-10.5819
▁Dick	-10.5819
▁Gor	-10.5821
▁escaped	-10.5823
▁weekly	-10.5839
uan	-10.5839
hl	-10.5843
log	-10.5843
▁employ	-10.5881
Cha	-10.5885
▁corn	-10.5885
▁announc	-10.5886
▁critic	-10.5894
▁carrie	-10.5894
▁clo	-10.5911
▁preserve	-10.5911
▁Wei	-10.5919
stitut	-10.5936
morph	-10.5946
zen	-10.5949
▁virtual	-10.5959
▁Anthony	-10.5959
▁December	-10.5959
▁Edinburgh	-10.5959
▁Richmond	-10.5959
▁evolution	-10.5959
▁facilitate	-10.5959
▁fragment	-10.5959
▁jurisdiction	-10.5959
▁participant	-10.5959
▁romantic	-10.5959
▁struck	-10.5959
▁yield	-10.5959
▁Delaware	-10.5959
▁monitor	-10.5959
▁ocean	-10.5959
▁prince	-10.5959
▁Jefferson	-10.5959
▁Network	-10.5959
▁wrong	-10.5959
▁endemic	-10.5959
▁essay	-10.5959
▁disorder	-10.5959
▁Douglas	-10.5959
▁priest	-10.5959
▁belief	-10.5959
▁Next	-10.5959
▁motto	-10.5959
▁Nigeria	-10.5959
despite	-10.5959
▁Internet	-10.596
▁driving	-10.596
nthrop	-10.596
▁Give	-10.5961
▁cabinet	-10.5962
▁Ridge	-10.5962
▁robot	-10.5964
▁proof	-10.5964
▁Guard	-10.5965
▁Look	-10.5966
▁unclear	-10.5971
▁retail	-10.5972
▁usage	-10.5974
▁pipe	-10.5979
▁loved	-10.5979
▁laid	-10.598
▁collector	-10.5993
▁fli	-10.5993
rose	-10.5999
▁consul	-10.5999
▁Austrian	-10.6003
▁Joan	-10.601
▁artistic	-10.6011
▁prefer	-10.6012
▁Grey	-10.6015
▁difficulty	-10.6023
oxide	-10.6026
▁Victorian	-10.6033
▁buses	-10.6034
▁Class	-10.6035
▁Mala	-10.6045
rock	-10.606
?’	-10.6072
▁tip	-10.6075
enne	-10.6075
▁dual	-10.6079
So	-10.6084
Un	-10.6088
▁Bart	-10.6089
▁Gall	-10.6105
stream	-10.6118
Com	-10.6123
▁tune	-10.613
owned	-10.6132
etti	-10.6137
▁Note	-10.6138
word	-10.6139
▁Bear	-10.6145
green	-10.6146
▁printed	-10.6154
▁Cop	-10.6161
▁Jon	-10.6172
▁Arab	-10.6174
lent	-10.6179
▁immediate	-10.6183
▁usual	-10.6187
▁def	-10.6195
▁symptom	-10.6198
▁Kim	-10.6199
▁bow	-10.6215
ister	-10.6216
▁Did	-10.6221
▁Arizona	-10.6222
▁Oklahoma	-10.6222
▁Project	-10.6222
▁competitive	-10.6222
▁controversial	-10.6222
▁plastic	-10.6222
▁possibly	-10.6222
▁practical	-10.6222
▁responsibility	-10.6222
▁scientist	-10.6222
▁submarine	-10.6222
▁thirteen	-10.6222
▁fifty	-10.6222
▁qualify	-10.6222
▁Vienna	-10.6222
▁beauty	-10.6222
▁Diego	-10.6222
▁Finland	-10.6222
▁cattle	-10.6222
▁Federal	-10.6222
▁shelter	-10.6222
▁renew	-10.6222
▁intention	-10.6222
▁Honor	-10.6222
▁Kennedy	-10.6223
▁Gordon	-10.6223
▁Foreign	-10.6224
▁freedom	-10.6224
▁partnership	-10.6225
▁Wright	-10.6227
▁violin	-10.6228
ika	-10.6232
Man	-10.6233
▁bold	-10.6233
▁Neith	-10.6235
mine	-10.6235
▁comprises	-10.6236
▁improvement	-10.6236
▁output	-10.6239
▁Duke	-10.6239
person	-10.6241
▁Drive	-10.6242
went	-10.6242
▁supposed	-10.6243
▁gang	-10.6244
▁Highway	-10.6248
▁Blo	-10.6248
cross	-10.625
▁Mayor	-10.6266
▁Berg	-10.6268
▁Human	-10.6269
▁determine	-10.6271
▁Sor	-10.6276
▁assisted	-10.6277
host	-10.6282
▁Kil	-10.6282
▁Fame	-10.6285
▁rider	-10.6294
▁Bern	-10.6296
▁incorporate	-10.63
▁photography	-10.6304
▁ruler	-10.6307
▁Know	-10.6308
▁waiting	-10.6312
▁Brian	-10.6322
▁Dog	-10.6323
Jo	-10.6323
shaw	-10.6336
▁Peru	-10.6336
▁Ric	-10.6337
▁Mann	-10.6344
▁paint	-10.6352
▁Lau	-10.6359
▁reverse	-10.6363
▁Java	-10.6367
▁Almost	-10.6375
▁select	-10.6408
▁Hand	-10.6413
▁experienced	-10.6421
▁supervis	-10.6425
▁advis	-10.6427
▁creat	-10.6459
▁Korea	-10.6459
▁pos	-10.6476
lift	-10.6479
hau	-10.6488
▁Development	-10.6492
▁Entertainment	-10.6492
▁Example	-10.6492
▁Protestant	-10.6492
▁appropriate	-10.6492
▁categories	-10.6492
▁centuries	-10.6492
▁committed	-10.6492
▁draft	-10.6492
▁execution	-10.6492
▁explanation	-10.6492
▁manufacturing	-10.6492
▁mechanical	-10.6492
▁suspended	-10.6492
▁Stewart	-10.6492
▁Turkish	-10.6492
▁attorney	-10.6492
▁constitution	-10.6492
▁nineteen	-10.6492
▁sudden	-10.6492
▁April	-10.6492
▁insurance	-10.6492
▁Ocean	-10.6492
▁minimal	-10.6492
▁copper	-10.6492
▁stuff	-10.6492
▁neighbourhood	-10.6492
▁giant	-10.6493
▁Turkey	-10.6493
▁shoe	-10.6493
▁summit	-10.6493
▁History	-10.6493
▁requirements	-10.6493
▁costume	-10.6494
▁creature	-10.6494
▁strange	-10.6494
▁legislation	-10.6496
▁nuclear	-10.6498
▁Franklin	-10.6498
▁documentary	-10.65
▁massive	-10.6501
▁lady	-10.6501
▁ancestry	-10.6502
▁Primar	-10.6502
▁instruction	-10.6503
▁marry	-10.6503
▁description	-10.6503
▁Julia	-10.6504
▁honorary	-10.6504
▁Cole	-10.6505
▁stable	-10.651
▁membership	-10.6512
Chi	-10.6517
▁rice	-10.6523
▁Sav	-10.6542
▁Time	-10.6551
▁seventh	-10.6552
▁hum	-10.6557
link	-10.656
▁granted	-10.6573
ridge	-10.6596
▁pit	-10.6601
▁expressed	-10.6605
oh	-10.6608
▁historically	-10.6621
▁parent	-10.6622
▁Yan	-10.6628
▁jumping	-10.6628
▁Sara	-10.6636
▁extract	-10.6646
▁vision	-10.6656
rank	-10.6656
▁fame	-10.6663
▁hom	-10.6665
▁Roy	-10.6669
break	-10.6671
▁Kent	-10.6674
▁shell	-10.6694
duction	-10.6695
▁restrict	-10.6698
Wi	-10.6712
▁Game	-10.6714
▁Swa	-10.672
▁define	-10.6741
▁Kel	-10.6742
lick	-10.6743
▁practiced	-10.6752
Bu	-10.6759
▁Morris	-10.6765
▁Affairs	-10.677
▁Campbell	-10.677
▁Executive	-10.677
▁Orthodox	-10.677
▁Ottawa	-10.677
▁Pittsburgh	-10.677
▁concentrate	-10.677
▁guilty	-10.677
▁satellite	-10.677
▁stretch	-10.677
▁Building	-10.677
▁Register	-10.677
▁Robinson	-10.677
▁considerably	-10.677
▁enhance	-10.677
▁Samuel	-10.677
▁breath	-10.677
▁Stanley	-10.677
▁bishop	-10.677
▁extent	-10.677
▁blind	-10.677
▁edited	-10.677
▁Natural	-10.677
▁hyper	-10.677
▁eighteen	-10.677
▁estimate	-10.677
▁recall	-10.677
▁equipped	-10.677
▁notably	-10.677
▁Michel	-10.6771
▁knee	-10.6772
▁permitted	-10.6772
▁invited	-10.6772
▁finance	-10.6773
▁Disney	-10.6773
▁skate	-10.6774
▁Knight	-10.6774
▁Orange	-10.6775
▁justice	-10.678
▁missed	-10.6781
▁Way	-10.6783
▁trick	-10.6789
▁administered	-10.6789
▁march	-10.679
bou	-10.679
action	-10.6791
▁organic	-10.6794
bol	-10.6795
▁Motor	-10.6796
abad	-10.6801
▁logo	-10.6802
▁exit	-10.6802
▁unlike	-10.6803
▁carrier	-10.6804
mac	-10.682
▁soul	-10.6833
▁Carlo	-10.6833
▁someone	-10.6834
▁drawn	-10.6834
▁Stein	-10.6856
▁deck	-10.6867
▁hip	-10.6876
▁kit	-10.6881
▁fiber	-10.6881
▁Kon	-10.6905
loom	-10.6905
▁reader	-10.6908
▁fro	-10.6931
agan	-10.6933
▁rent	-10.6948
illo	-10.6962
▁displayed	-10.6967
▁Kra	-10.6969
▁Rick	-10.6969
uba	-10.697
▁Sid	-10.6978
bun	-10.6987
▁relat	-10.6992
▁deposit	-10.7001
▁occasional	-10.7038
▁electro	-10.7041
Star	-10.7046
▁Tha	-10.7051
▁Bulgaria	-10.7055
▁Cleveland	-10.7055
▁Vancouver	-10.7055
▁concrete	-10.7055
▁obvious	-10.7055
▁recognition	-10.7055
▁surgery	-10.7055
▁Harvard	-10.7055
▁Taiwan	-10.7055
▁commune	-10.7055
▁enforce	-10.7055
▁sequel	-10.7055
▁Hockey	-10.7055
▁worship	-10.7055
▁conclude	-10.7055
▁trend	-10.7055
▁Swiss	-10.7055
▁fossil	-10.7055
▁resumed	-10.7056
▁Phillips	-10.7056
▁shock	-10.7056
▁premier	-10.7056
▁hiking	-10.7056
▁Military	-10.7056
▁Argentina	-10.7056
▁surf	-10.7056
▁adventure	-10.7057
▁funded	-10.7057
▁Persian	-10.7057
▁entertainment	-10.7057
▁lessons	-10.7058
▁naval	-10.7059
▁replacement	-10.7059
▁theorem	-10.706
▁automatic	-10.706
▁grandson	-10.7062
away	-10.7064
▁copies	-10.7064
▁wire	-10.7065
▁establishment	-10.7066
▁server	-10.7066
▁playoff	-10.7067
▁diverse	-10.7067
▁specifically	-10.7067
▁Harrison	-10.7068
▁Order	-10.7071
▁clock	-10.7072
▁Karl	-10.7073
▁evolved	-10.7075
▁Bible	-10.7075
▁coverage	-10.7075
▁Merc	-10.7079
▁Beau	-10.7081
▁disappeared	-10.7084
▁anyone	-10.7086
▁Hope	-10.7087
wall	-10.7089
▁Brand	-10.7091
▁Kelly	-10.71
▁sex	-10.71
▁Kirk	-10.7101
▁delivered	-10.7116
▁construct	-10.7117
▁manner	-10.7118
▁Penn	-10.7122
▁Bou	-10.7126
▁coastal	-10.7128
drew	-10.7132
▁hunting	-10.7135
▁successor	-10.7136
▁indicated	-10.7141
▁Along	-10.7144
▁understanding	-10.7147
▁electrical	-10.7148
▁handle	-10.715
▁crosses	-10.7152
▁Jay	-10.7154
▁Greater	-10.7166
enburg	-10.7188
▁Our	-10.719
▁verse	-10.7203
▁bid	-10.7204
▁none	-10.7204
▁Cow	-10.7236
▁explore	-10.7236
What	-10.7251
▁significantly	-10.7253
card	-10.7256
formation	-10.7263
▁Plant	-10.7268
▁neo	-10.7286
▁thank	-10.7286
▁Fund	-10.7299
▁internationally	-10.7305
▁bann	-10.731
▁rapid	-10.7317
▁Bir	-10.732
▁McL	-10.7321
▁rever	-10.7332
▁designer	-10.7334
▁stab	-10.7338
▁Romania	-10.7343
▁passing	-10.7344
▁legend	-10.7349
bourne	-10.7349
▁Baptist	-10.735
▁Business	-10.735
▁Nebraska	-10.735
▁absolute	-10.735
▁adjust	-10.735
▁budget	-10.735
▁faculty	-10.735
▁franchise	-10.735
▁inspiration	-10.735
▁mathematical	-10.735
▁predecessor	-10.735
▁prohibit	-10.735
▁shield	-10.735
▁terror	-10.735
▁Dakota	-10.735
▁disagree	-10.735
▁signature	-10.735
▁Indonesia	-10.735
▁ancestor	-10.735
▁convince	-10.735
▁decoration	-10.735
▁dialect	-10.735
▁overlook	-10.735
▁deputy	-10.735
▁filter	-10.735
▁architectural	-10.735
▁Derby	-10.735
▁Dream	-10.735
▁trading	-10.735
mperial	-10.735
▁tropical	-10.735
▁elsewhere	-10.735
▁flavor	-10.735
▁Hotel	-10.735
▁Donald	-10.735
▁Croatia	-10.735
▁joy	-10.7351
▁ensure	-10.7351
▁departure	-10.7351
▁duties	-10.7352
▁Prize	-10.7353
▁provision	-10.7353
▁kick	-10.7354
▁Health	-10.7355
▁genetic	-10.7355
▁Ryan	-10.7355
▁pond	-10.7357
▁Portland	-10.7361
▁Stock	-10.7361
▁gray	-10.7362
umerous	-10.7364
▁Week	-10.7366
▁Winter	-10.7367
▁sick	-10.7368
▁loop	-10.7371
▁Market	-10.7371
▁Apple	-10.7373
▁feat	-10.7373
▁Grace	-10.7373
▁Parish	-10.7376
▁alive	-10.7382
▁bull	-10.7384
▁Butler	-10.7385
▁Vale	-10.7389
▁clip	-10.739
▁Large	-10.7394
▁arise	-10.7397
▁responded	-10.7399
▁Initially	-10.7399
▁provid	-10.7406
▁Rid	-10.741
▁recreational	-10.7411
▁Lower	-10.7414
▁restricted	-10.7427
hoo	-10.7459
▁oct	-10.7465
▁Billy	-10.7468
Ri	-10.7481
▁Shan	-10.7483
▁lap	-10.7484
▁logic	-10.7486
ulation	-10.7503
▁sad	-10.7514
▁minute	-10.7519
▁decade	-10.7519
▁Carol	-10.7529
▁eating	-10.753
creasingly	-10.7534
▁Greg	-10.754
gger	-10.7543
▁Bowl	-10.7545
▁Medi	-10.7553
piece	-10.7553
lived	-10.7565
keeper	-10.7578
▁confirm	-10.7583
flow	-10.7583
▁mall	-10.7595
▁tie	-10.7595
▁divide	-10.7606
berry	-10.7606
▁Additional	-10.7614
▁Hence	-10.7621
▁Male	-10.7622
▁diet	-10.7627
▁neighbour	-10.7652
▁Magazine	-10.7653
▁Birmingham	-10.7653
▁Confederate	-10.7653
▁celebration	-10.7653
▁chemistry	-10.7653
▁circumstances	-10.7653
▁colleague	-10.7653
▁impossible	-10.7653
▁intelligence	-10.7653
▁legislature	-10.7653
▁mathematics	-10.7653
▁monastery	-10.7653
▁perhaps	-10.7653
▁survey	-10.7653
▁varieties	-10.7653
corporation	-10.7653
▁Christopher	-10.7653
▁Frederick	-10.7653
▁maintenance	-10.7653
▁consumer	-10.7653
▁Trinity	-10.7653
▁cartoon	-10.7653
▁Limited	-10.7653
▁animated	-10.7653
▁overseas	-10.7653
▁smoke	-10.7653
▁telephone	-10.7653
▁hamlet	-10.7653
▁Oliver	-10.7653
▁pretty	-10.7653
oriented	-10.7653
▁predict	-10.7653
▁ruins	-10.7653
▁Iowa	-10.7653
▁bonus	-10.7653
▁float	-10.7653
▁transmission	-10.7654
▁particle	-10.7654
▁kids	-10.7654
▁undergraduate	-10.7654
▁intense	-10.7655
▁rush	-10.7655
▁tight	-10.7655
▁Operation	-10.7655
▁optim	-10.7655
▁warning	-10.7655
▁drummer	-10.7657
dubbed	-10.7658
▁Nik	-10.7659
▁forget	-10.766
▁Broad	-10.766
▁hide	-10.7661
▁Sarah	-10.7662
▁humor	-10.7662
▁suitable	-10.7664
▁Auto	-10.7664
▁Graham	-10.7665
▁blow	-10.7666
mobil	-10.7666
▁elector	-10.7667
▁clothes	-10.7668
▁Find	-10.7669
▁objective	-10.767
▁Classic	-10.767
lade	-10.7671
▁personality	-10.7672
▁fence	-10.7673
▁reality	-10.7687
▁nice	-10.7693
▁threatened	-10.7696
▁dimension	-10.7702
▁presid	-10.7705
▁fluent	-10.7707
▁pure	-10.7708
jan	-10.7711
▁implemented	-10.7719
▁discussed	-10.7724
▁advisor	-10.7729
▁Hunter	-10.7733
iac	-10.7744
▁Wol	-10.7749
▁Plain	-10.7756
quin	-10.7762
post	-10.7773
▁drinking	-10.7782
corporate	-10.7817
▁butter	-10.7834
▁settler	-10.7849
odor	-10.7851
half	-10.7867
▁discuss	-10.787
▁Dean	-10.7897
fight	-10.7903
core	-10.7912
four	-10.793
▁mal	-10.7942
▁Kha	-10.7955
▁initiat	-10.7962
▁Champion	-10.7964
▁February	-10.7965
▁Finnish	-10.7965
▁Lieutenant	-10.7965
▁Mediterranean	-10.7965
▁Seattle	-10.7965
▁Studies	-10.7965
▁Technology	-10.7965
▁algebra	-10.7965
▁colonial	-10.7965
▁imprisoned	-10.7965
▁irregular	-10.7965
▁policies	-10.7965
▁republic	-10.7965
▁supplement	-10.7965
▁surrender	-10.7965
▁volcanic	-10.7965
▁regulation	-10.7965
▁slogan	-10.7965
▁goddess	-10.7965
▁storage	-10.7965
▁Antonio	-10.7965
▁client	-10.7965
▁palace	-10.7965
▁precise	-10.7965
▁Utah	-10.7965
▁Heritage	-10.7965
▁Hudson	-10.7965
▁assembly	-10.7965
▁mild	-10.7965
▁leaf	-10.7966
▁realize	-10.7966
▁counterpart	-10.7966
▁kingdom	-10.7966
▁mounted	-10.7966
▁Afterwards	-10.7966
▁random	-10.7967
▁provincial	-10.7967
▁admitted	-10.7967
▁violent	-10.7968
▁Again	-10.7968
▁raid	-10.7969
▁ongoing	-10.7969
▁Lanka	-10.797
▁Palace	-10.797
▁landmark	-10.797
▁Ottoman	-10.797
▁depart	-10.7972
▁Susan	-10.7972
▁Hil	-10.7973
▁Danish	-10.7974
▁progressive	-10.7976
▁Deput	-10.7977
▁Previously	-10.7977
▁grandchildren	-10.7983
oka	-10.7983
▁interpretation	-10.7983
▁duty	-10.7987
▁Broadway	-10.7988
▁collaboration	-10.7989
▁lifetime	-10.7991
▁eighth	-10.8005
▁Kill	-10.8008
▁Former	-10.8009
▁sung	-10.8016
▁inhabited	-10.802
▁Princess	-10.8021
▁Nazi	-10.8023
▁beaches	-10.8023
vian	-10.803
▁Kno	-10.8038
▁sentenced	-10.8042
▁Burg	-10.805
▁Fun	-10.8051
▁Jar	-10.8057
▁neuro	-10.8059
!’	-10.806
▁angle	-10.8067
▁fate	-10.807
▁charter	-10.8077
▁focuses	-10.8077
▁ridge	-10.808
▁Nine	-10.8092
▁ready	-10.8097
▁Juan	-10.8099
▁Commissioner	-10.8119
▁Last	-10.8125
▁experimental	-10.8128
▁relie	-10.8147
▁Gray	-10.8147
▁reproduc	-10.8174
▁lyric	-10.8179
▁Gate	-10.8183
member	-10.8187
space	-10.8193
▁Maha	-10.8199
bank	-10.8201
▁caus	-10.8204
large	-10.8209
▁Walk	-10.8217
making	-10.8223
medi	-10.8229
▁remove	-10.8241
▁Kri	-10.8251
▁replace	-10.8252
▁Virgin	-10.8257
▁Dai	-10.8261
Vi	-10.8271
gun	-10.8275
plex	-10.8282
lev	-10.8284
▁Napoleon	-10.8288
▁Brisbane	-10.8288
▁Commonwealth	-10.8288
▁attitude	-10.8288
▁behaviour	-10.8288
▁consequence	-10.8288
▁conversation	-10.8288
▁gradually	-10.8288
▁identical	-10.8288
▁ingredient	-10.8288
▁physics	-10.8288
▁renovation	-10.8288
▁specimen	-10.8288
▁tributary	-10.8288
▁vertical	-10.8288
▁advice	-10.8288
▁escort	-10.8288
▁tissue	-10.8288
▁widow	-10.8288
▁atmosphere	-10.8288
▁exposed	-10.8288
▁radical	-10.8288
▁muscle	-10.8288
▁substance	-10.8288
▁modification	-10.8288
▁timber	-10.8288
▁silent	-10.8288
▁rifle	-10.8288
▁proportion	-10.8288
▁Gulf	-10.8288
▁terminus	-10.8288
▁disaster	-10.8288
▁Flower	-10.8288
▁Micro	-10.8288
▁missile	-10.8288
▁personnel	-10.8288
▁stress	-10.8288
▁Brothers	-10.8288
▁steep	-10.8288
▁dangerous	-10.829
▁Express	-10.829
▁Evans	-10.829
▁matern	-10.8293
▁biological	-10.8293
Saxon	-10.8293
▁careful	-10.8294
▁artwork	-10.8296
▁blame	-10.8296
▁Egyptian	-10.8297
▁Euro	-10.8297
▁tram	-10.8299
▁bullet	-10.83
▁Yorkshire	-10.8301
▁archive	-10.8303
▁implementation	-10.8304
▁dominated	-10.8307
uki	-10.8308
▁Lou	-10.8308
▁Larry	-10.8309
▁creativ	-10.8327
▁Staff	-10.8329
▁collapsed	-10.8329
▁discovery	-10.8344
Ju	-10.8359
▁effectively	-10.8369
▁icon	-10.8373
▁moon	-10.8386
corn	-10.8404
▁bark	-10.8406
▁operational	-10.8418
▁taste	-10.8418
▁linear	-10.8431
▁Gun	-10.8438
▁Shah	-10.844
▁simpl	-10.845
▁Spo	-10.8458
▁specialis	-10.847
▁Reform	-10.8474
▁Cast	-10.8484
▁occasion	-10.849
▁recover	-10.8514
itary	-10.8517
election	-10.8518
▁profession	-10.8531
▁implement	-10.8532
▁Eric	-10.8547
▁obtain	-10.8549
cell	-10.857
▁divorce	-10.8574
▁observe	-10.8574
sufficient	-10.8621
▁Representative	-10.8621
▁acquisition	-10.8621
▁alphabet	-10.8621
▁artificial	-10.8621
▁complain	-10.8621
▁elaborate	-10.8621
▁expensive	-10.8621
▁jacket	-10.8621
▁mirror	-10.8621
▁reservoir	-10.8621
▁survivor	-10.8621
▁universal	-10.8621
▁wrestling	-10.8621
▁yourself	-10.8621
▁Standard	-10.8621
▁confused	-10.8621
▁easier	-10.8621
▁Borough	-10.8621
▁Legislati	-10.8621
▁veteran	-10.8621
▁Fellow	-10.8621
▁carriage	-10.8621
▁retiring	-10.8621
▁Arnold	-10.8621
▁Movement	-10.8621
▁modified	-10.8621
▁Greece	-10.8621
▁examination	-10.8621
▁battalion	-10.8621
▁burial	-10.8621
▁profile	-10.8621
▁catalog	-10.8621
▁Judge	-10.8621
▁Charlotte	-10.8621
▁fourteen	-10.8621
▁prayer	-10.8621
▁applies	-10.8621
▁voting	-10.8621
▁admir	-10.8621
▁jail	-10.8622
▁Mongol	-10.8622
▁Dennis	-10.8622
ueensland	-10.8622
▁cotton	-10.8622
▁Besides	-10.8622
▁Speaker	-10.8622
▁cited	-10.8623
▁joke	-10.8623
▁Alpha	-10.8623
▁emergency	-10.8623
grove	-10.8623
▁Friend	-10.8623
▁Serbia	-10.8624
▁Bernard	-10.8624
▁automatically	-10.8624
▁shallow	-10.8624
▁favourite	-10.8625
▁conservation	-10.8625
▁Kevin	-10.8625
▁household	-10.8626
▁honey	-10.8626
▁instant	-10.8626
▁ownership	-10.8626
▁mainstream	-10.8627
▁Craig	-10.8628
▁Communist	-10.863
▁oak	-10.863
▁Tiger	-10.8632
▁dense	-10.8633
▁hub	-10.8633
▁dating	-10.8634
▁teenager	-10.8636
▁Islamic	-10.8639
▁Warren	-10.864
▁accused	-10.8641
▁Series	-10.8642
▁belt	-10.8642
▁celebrated	-10.8643
▁gay	-10.8645
▁Bush	-10.8655
▁publishes	-10.8657
▁enable	-10.8659
▁cargo	-10.8659
▁Rico	-10.866
▁orbit	-10.8669
hurst	-10.867
▁dependent	-10.8683
jewel	-10.8698
▁disputed	-10.8702
Hi	-10.8719
▁faster	-10.872
zza	-10.8734
▁dock	-10.8735
five	-10.8737
made	-10.8746
▁Shore	-10.8755
▁participat	-10.8757
▁Back	-10.8784
phal	-10.8808
▁stepp	-10.8813
volving	-10.8842
▁Charl	-10.8843
▁deliver	-10.8859
▁Leon	-10.8874
▁Fen	-10.8881
▁Shaw	-10.889
▁distinguish	-10.8894
▁integrat	-10.8894
scale	-10.8908
Ja	-10.8913
▁Pala	-10.8913
▁Bert	-10.8914
▁purchase	-10.8918
story	-10.8924
▁entr	-10.8925
▁Ship	-10.895
uous	-10.8958
▁Tyr	-10.8961
▁diploma	-10.8962
▁revolution	-10.8963
On	-10.8964
▁torpedo	-10.8966
▁Benjamin	-10.8966
▁Buffalo	-10.8966
▁Microsoft	-10.8966
▁Mitchell	-10.8966
▁Orleans	-10.8966
▁Traditional	-10.8966
▁Usually	-10.8966
▁aggressive	-10.8966
▁assassin	-10.8966
▁chicken	-10.8966
▁completion	-10.8966
▁congregation	-10.8966
▁interrupt	-10.8966
▁intervention	-10.8966
▁metropolitan	-10.8966
▁opportunities	-10.8966
▁protocol	-10.8966
▁recognised	-10.8966
▁surname	-10.8966
▁temporary	-10.8966
▁rhythm	-10.8966
▁Progress	-10.8966
▁Reserve	-10.8966
▁ignore	-10.8966
▁puzzle	-10.8966
▁counsel	-10.8966
▁kidnap	-10.8966
▁Louisiana	-10.8966
▁Madrid	-10.8966
▁sixteen	-10.8966
▁speculat	-10.8966
▁merged	-10.8966
▁Austin	-10.8966
▁Peace	-10.8966
▁patrol	-10.8966
▁Chamber	-10.8966
▁teeth	-10.8966
▁ornament	-10.8966
▁depth	-10.8966
▁cried	-10.8967
▁violence	-10.8967
▁heaven	-10.8967
▁worse	-10.8967
▁nerve	-10.8967
▁Authority	-10.8968
▁Front	-10.8968
▁indoor	-10.8968
▁classroom	-10.897
▁vector	-10.897
▁Methodist	-10.8971
▁hung	-10.8971
▁desire	-10.8972
▁editorial	-10.8972
▁fitted	-10.8973
▁index	-10.8973
▁friendship	-10.8975
▁losing	-10.8976
▁odd	-10.8978
▁reduction	-10.8978
▁arrival	-10.8978
▁flash	-10.8979
▁Arabic	-10.8979
Pro	-10.8981
▁sheet	-10.8983
▁Johnny	-10.8986
▁Lauren	-10.8987
▁vocalist	-10.8988
▁mentor	-10.899
▁hometown	-10.8993
▁donated	-10.8994
▁endors	-10.8995
▁Alberta	-10.8996
▁indeed	-10.8997
▁assist	-10.8998
▁ballet	-10.9001
▁entry	-10.9003
▁sang	-10.9004
▁Warner	-10.9009
▁Carter	-10.9009
▁Highland	-10.901
▁accomplished	-10.9013
▁employment	-10.9015
▁Laura	-10.9021
itis	-10.9033
▁Swan	-10.9035
▁handled	-10.9037
▁integrated	-10.9038
▁businessman	-10.9041
▁emotional	-10.9043
▁Nova	-10.9046
▁hatch	-10.9057
▁compet	-10.907
comb	-10.9076
▁Ruth	-10.9105
▁functional	-10.9117
▁Song	-10.9138
▁mari	-10.9153
fire	-10.9156
world	-10.9224
normal	-10.9224
para	-10.9245
iah	-10.926
▁achieve	-10.9263
onymous	-10.9264
▁Southeast	-10.9266
shore	-10.928
igan	-10.9285
▁cataly	-10.9297
▁electron	-10.9303
▁Thorn	-10.9312
▁afterward	-10.9317
▁Baltimore	-10.9323
▁Caribbean	-10.9323
▁Cathedral	-10.9323
▁January	-10.9323
▁Manitoba	-10.9323
▁Official	-10.9323
▁Ukrainian	-10.9323
▁approved	-10.9323
▁companion	-10.9323
▁complicated	-10.9323
▁concentration	-10.9323
▁consecutive	-10.9323
▁emigrat	-10.9323
▁entitled	-10.9323
▁infrastructure	-10.9323
▁intellectual	-10.9323
▁interchange	-10.9323
▁opportunity	-10.9323
▁understood	-10.9323
▁valuable	-10.9323
▁vegetable	-10.9323
▁villain	-10.9323
▁Westminster	-10.9323
▁inherited	-10.9323
▁Constitution	-10.9323
▁Portugal	-10.9323
▁bottle	-10.9323
▁empty	-10.9323
▁refuge	-10.9323
▁Atlanta	-10.9323
▁Dragon	-10.9323
▁Support	-10.9323
▁disturb	-10.9323
▁monarch	-10.9323
▁navigat	-10.9323
▁harvest	-10.9323
▁welcome	-10.9323
▁respectively	-10.9323
▁confess	-10.9323
▁cancelled	-10.9323
▁Nelson	-10.9323
▁Sheffield	-10.9323
▁Credit	-10.9323
▁venture	-10.9323
▁advertisement	-10.9323
▁loyal	-10.9323
▁choir	-10.9323
▁valid	-10.9323
▁invention	-10.9323
▁Dallas	-10.9324
▁borrow	-10.9324
▁transaction	-10.9324
▁agency	-10.9324
▁Denmark	-10.9324
▁Jimmy	-10.9325
▁anchor	-10.9325
▁engrav	-10.9325
▁assistance	-10.9326
▁confront	-10.9326
▁spark	-10.9327
▁Storm	-10.9328
▁discipline	-10.9329
▁dozen	-10.933
▁loud	-10.9331
▁Review	-10.9331
▁dirt	-10.9333
▁brew	-10.9334
▁patch	-10.9335
▁Bruce	-10.9336
▁Holland	-10.9337
▁Ny	-10.9346
▁minority	-10.9348
▁possession	-10.9349
▁dismissed	-10.9354
osa	-10.9354
▁civilian	-10.9363
▁Dark	-10.9365
▁updated	-10.9366
lysis	-10.9367
▁Lyon	-10.9368
▁Officer	-10.9369
▁mail	-10.9383
Men	-10.9384
▁Pont	-10.9403
ucci	-10.9407
▁defi	-10.9414
▁Thor	-10.9425
▁driven	-10.9428
▁Unit	-10.9437
rrington	-10.9439
▁ranch	-10.9442
▁Off	-10.9463
▁faction	-10.947
▁Luke	-10.9484
polar	-10.951
▁featur	-10.9519
▁Mah	-10.9559
▁Kara	-10.9586
wheel	-10.9594
group	-10.9596
▁introduce	-10.9602
color	-10.9606
▁adopt	-10.9623
▁Row	-10.9624
▁collapse	-10.9646
▁compris	-10.9673
▁stag	-10.9678
▁import	-10.9692
boriginal	-10.9693
sensitive	-10.9693
▁Administration	-10.9693
▁Architect	-10.9693
▁Bangladesh	-10.9693
▁Certain	-10.9693
▁Electric	-10.9693
▁Hundred	-10.9693
▁Manhattan	-10.9693
▁Phoenix	-10.9693
▁conclusion	-10.9693
▁configuration	-10.9693
▁cultivation	-10.9693
▁enzyme	-10.9693
▁graduation	-10.9693
▁guidance	-10.9693
▁helicopter	-10.9693
▁philosopher	-10.9693
▁reinforc	-10.9693
▁territories	-10.9693
▁Journal	-10.9693
▁Lithuania	-10.9693
▁earthquake	-10.9693
▁sketch	-10.9693
▁enemies	-10.9693
▁hidden	-10.9693
▁tribute	-10.9693
▁Management	-10.9693
▁Rugby	-10.9693
▁erected	-10.9693
▁kitchen	-10.9693
▁literally	-10.9693
▁motivat	-10.9693
▁possibility	-10.9693
▁silence	-10.9693
▁dominant	-10.9693
▁freight	-10.9693
▁stamp	-10.9693
▁cluster	-10.9693
▁excess	-10.9693
▁Fleet	-10.9693
▁cheese	-10.9693
▁Prussia	-10.9693
▁remix	-10.9693
▁reunite	-10.9694
▁Alliance	-10.9694
▁Third	-10.9694
▁revive	-10.9694
▁Branch	-10.9694
▁mobile	-10.9694
▁Athens	-10.9694
▁isolated	-10.9694
▁sulf	-10.9694
▁Gilbert	-10.9695
▁Gallery	-10.9695
▁assault	-10.9695
▁versa	-10.9695
▁Nepal	-10.9696
▁substitute	-10.9696
▁burned	-10.9696
▁Wellington	-10.9696
▁remarkable	-10.9698
▁internet	-10.9699
▁Terri	-10.9701
▁render	-10.9701
tropic	-10.9704
▁difficulties	-10.9704
▁achievement	-10.9707
▁copy	-10.9709
▁strengthen	-10.971
▁tenure	-10.9711
▁Peak	-10.9714
▁infection	-10.9716
▁Blu	-10.9717
▁lamp	-10.9719
▁Rip	-10.9724
▁measurement	-10.9733
▁begun	-10.9736
▁noble	-10.9737
▁vast	-10.9739
▁originate	-10.9746
▁Trade	-10.9747
▁package	-10.975
▁adaptation	-10.9751
▁ramp	-10.9751
▁wonder	-10.9756
▁boot	-10.977
▁Clarke	-10.9772
▁closest	-10.9784
tree	-10.9798
▁overlap	-10.98
▁bore	-10.9812
lux	-10.9828
▁characterize	-10.9839
▁Maur	-10.9841
▁Baron	-10.9856
▁mile	-10.9879
▁Artist	-10.9907
▁psycho	-10.9908
▁Tech	-10.992
language	-10.9979
length	-10.9979
developed	-10.9979
▁reache	-10.9984
▁Dru	-10.9984
▁succeed	-11.0006
▁Yama	-11.001
▁flee	-11.0026
▁combine	-11.0031
▁associate	-11.0031
▁raise	-11.0033
▁organize	-11.0036
park	-11.0055
▁molecul	-11.0057
▁slight	-11.0061
▁squad	-11.0076
ndustrial	-11.0078
Enterprise	-11.0078
▁Athletic	-11.0078
▁Cincinnati	-11.0078
▁Colombia	-11.0078
▁Different	-11.0078
▁Windows	-11.0078
▁ceremonies	-11.0078
▁commemorat	-11.0078
▁discontinu	-11.0078
▁explicit	-11.0078
▁extinct	-11.0078
▁familiar	-11.0078
▁lieutenant	-11.0078
▁maximum	-11.0078
▁physician	-11.0078
▁receiving	-11.0078
▁treasure	-11.0078
▁Collection	-11.0078
▁bacteria	-11.0078
▁crisis	-11.0078
▁elevation	-11.0078
▁pedestrian	-11.0078
▁regulate	-11.0078
▁rubber	-11.0078
▁stimul	-11.0078
▁Bristol	-11.0078
▁Cardinal	-11.0078
▁cliff	-11.0078
▁margin	-11.0078
▁ritual	-11.0078
▁Gabriel	-11.0078
▁renowned	-11.0078
▁restoration	-11.0078
▁radar	-11.0078
▁replica	-11.0078
▁saint	-11.0078
▁reddish	-11.0078
▁Thank	-11.0078
▁Family	-11.0078
▁Devon	-11.0078
▁Owen	-11.0078
Secret	-11.0078
▁chord	-11.0078
▁Guinea	-11.0078
▁scoring	-11.0078
▁valve	-11.0078
▁alliance	-11.0078
▁fortune	-11.0078
▁Golf	-11.0079
▁flank	-11.0079
▁Child	-11.0079
▁barrier	-11.0079
▁simulat	-11.0079
▁Barbara	-11.0079
▁Murphy	-11.0079
▁Present	-11.0079
▁Collins	-11.008
▁snake	-11.008
▁Murray	-11.008
▁sheep	-11.008
▁Friday	-11.0081
▁optical	-11.0081
▁Leonard	-11.0081
▁magnetic	-11.0082
▁Transport	-11.0082
▁download	-11.0082
▁fatal	-11.0084
▁bread	-11.0084
▁permit	-11.0084
▁sculptor	-11.0085
▁involvement	-11.0086
▁Victor	-11.0087
▁alien	-11.0088
▁Brazilian	-11.009
▁mask	-11.009
▁solar	-11.0091
▁Wayne	-11.0092
▁Heights	-11.0092
▁cutting	-11.0092
▁Delta	-11.0094
▁Princeton	-11.0097
▁Mission	-11.0098
▁remark	-11.0099
▁creator	-11.0103
▁handling	-11.0105
▁institute	-11.0107
scular	-11.0108
▁preferred	-11.0108
▁teaches	-11.011
▁suburban	-11.0112
▁Belgi	-11.0114
West	-11.0116
▁preparation	-11.0118
▁recovery	-11.0118
▁cake	-11.0124
▁generated	-11.0125
▁rebel	-11.0129
▁Clara	-11.013
▁calm	-11.0132
▁glasses	-11.0138
▁jet	-11.0194
▁conventional	-11.0206
▁Georg	-11.0208
racle	-11.0208
▁lion	-11.0214
▁plantation	-11.0224
▁taxi	-11.0228
▁tale	-11.0257
▁bush	-11.0266
▁Pine	-11.0271
▁batt	-11.0284
▁analog	-11.0315
▁Mall	-11.0331
▁resid	-11.0335
▁Pitt	-11.0374
walk	-11.0393
▁recreation	-11.0398
▁cloth	-11.0402
issa	-11.0409
▁Tell	-11.0414
▁Northwest	-11.0415
Baby	-11.0422
▁praise	-11.043
▁occupie	-11.0431
▁update	-11.0433
mberg	-11.0433
▁Subsequent	-11.0439
▁infect	-11.0455
▁soldier	-11.0459
▁negotiat	-11.0476
▁infant	-11.0476
clusive	-11.0477
▁Consequently	-11.0478
▁cavalry	-11.0478
▁circular	-11.0478
▁compilation	-11.0478
▁confusion	-11.0478
▁embassy	-11.0478
▁emperor	-11.0478
▁evacuat	-11.0478
▁intermediate	-11.0478
▁intersection	-11.0478
▁populated	-11.0478
▁syndrome	-11.0478
▁terrain	-11.0478
definitely	-11.0478
▁diameter	-11.0478
▁fabric	-11.0478
▁Jacque	-11.0478
▁Nearby	-11.0478
▁ceased	-11.0478
▁Formula	-11.0478
▁Picture	-11.0478
conscious	-11.0478
▁seventeen	-11.0478
▁assignment	-11.0478
croft	-11.0478
▁revolt	-11.0478
▁absent	-11.0478
▁allegation	-11.0478
▁drove	-11.0478
▁garner	-11.0478
▁pound	-11.0478
relevant	-11.0478
▁whisper	-11.0478
▁amateur	-11.0478
▁facing	-11.0479
▁forecast	-11.0479
▁false	-11.0479
▁ferry	-11.0479
▁mosque	-11.0479
▁Nothing	-11.0479
▁comparison	-11.048
▁defence	-11.048
▁Nancy	-11.048
ifying	-11.0481
▁mixture	-11.0481
▁constitute	-11.0481
▁Keith	-11.0481
▁trademark	-11.0481
▁resolution	-11.0481
▁kiss	-11.0481
▁comfortable	-11.0482
▁Medal	-11.0482
▁layout	-11.0482
▁Bengal	-11.0482
▁closing	-11.0483
▁infantry	-11.0483
▁lord	-11.0484
▁cream	-11.0485
▁gender	-11.0487
▁Drama	-11.0488
▁Bloom	-11.0488
▁electricity	-11.0489
▁denote	-11.0489
▁fond	-11.049
▁contestant	-11.0491
morphic	-11.0494
▁Socialist	-11.0494
▁Blair	-11.0496
▁molecules	-11.05
▁sink	-11.05
▁parliamentar	-11.0501
▁Sport	-11.0503
▁Price	-11.0504
firm	-11.0511
▁cruise	-11.0517
▁Opera	-11.0518
▁Pope	-11.0518
▁delivery	-11.0519
▁Yale	-11.0519
▁Cris	-11.0521
▁Raj	-11.0521
deemed	-11.0525
wich	-11.0527
▁jam	-11.0529
▁Barry	-11.0534
▁Crow	-11.0538
▁cry	-11.0539
▁Henri	-11.0544
▁equi	-11.0546
▁Commander	-11.0547
▁Dance	-11.0574
▁sacrifice	-11.059
ittle	-11.0605
▁Eye	-11.0605
▁Round	-11.0607
▁contributor	-11.0607
▁Rosa	-11.0619
▁resist	-11.0623
▁Homer	-11.0635
slav	-11.0638
▁Israeli	-11.0642
▁Liv	-11.0655
▁Milan	-11.0722
iddle	-11.0727
▁opt	-11.0728
▁Cuban	-11.0729
▁Shu	-11.0743
▁Kh	-11.078
▁Pick	-11.0794
▁inhabit	-11.0822
▁recommend	-11.0822
▁repeat	-11.0823
▁accord	-11.0826
trans	-11.0841
▁danger	-11.0894
▁Nottingham	-11.0895
▁chronic	-11.0895
▁Agriculture	-11.0895
▁Arkansas	-11.0895
▁Energy	-11.0895
▁Global	-11.0895
▁Peninsula	-11.0895
▁Winnipeg	-11.0895
▁celebrit	-11.0895
▁efficiency	-11.0895
▁explosion	-11.0895
▁fertile	-11.0895
▁fraternity	-11.0895
▁limestone	-11.0895
▁prolific	-11.0895
▁recipient	-11.0895
▁reservation	-11.0895
▁scenario	-11.0895
▁servant	-11.0895
▁societies	-11.0895
▁subspecies	-11.0895
▁voyage	-11.0895
▁Nevada	-11.0895
▁changing	-11.0895
▁diagram	-11.0895
▁routine	-11.0895
▁suppress	-11.0895
▁Baseball	-11.0895
▁revenue	-11.0895
▁consultant	-11.0895
▁junction	-11.0895
▁kayak	-11.0895
▁Auckland	-11.0895
▁purple	-11.0895
▁Ghana	-11.0895
▁superior	-11.0895
▁Abbey	-11.0895
▁stroke	-11.0895
▁closure	-11.0895
▁Eddie	-11.0895
▁Watson	-11.0895
▁hypo	-11.0895
▁Leader	-11.0895
Perhaps	-11.0895
▁bedroom	-11.0895
▁installation	-11.0895
▁Holmes	-11.0895
▁comedian	-11.0895
▁trigger	-11.0896
agonal	-11.0896
▁rainfall	-11.0896
▁squadron	-11.0897
▁Venice	-11.0897
▁negotiations	-11.0897
▁Petersburg	-11.0898
▁citizenship	-11.0898
▁hardware	-11.0899
▁toxic	-11.0899
▁intact	-11.0899
▁transition	-11.09
▁radiation	-11.09
▁shake	-11.09
▁hind	-11.0901
▁illness	-11.0902
▁firing	-11.0902
▁cheer	-11.0903
▁Ellen	-11.0904
▁journalism	-11.0904
▁Midland	-11.0904
▁colorful	-11.0905
▁Design	-11.0907
▁biology	-11.0907
▁Armenian	-11.0908
▁favorable	-11.0908
▁toilet	-11.091
▁Chester	-11.0911
▁Hughes	-11.0912
▁Budd	-11.0914
spel	-11.0914
▁abuse	-11.0918
▁relation	-11.092
▁payment	-11.0922
▁Popula	-11.0926
▁parade	-11.0929
▁tract	-11.0931
▁armor	-11.0939
▁consideration	-11.094
▁performers	-11.0943
▁Locat	-11.0954
▁socialist	-11.0958
▁Pyr	-11.0967
▁pastor	-11.0968
ought	-11.0975
▁shr	-11.1005
▁tear	-11.1008
Ni	-11.1017
▁promot	-11.1033
▁Kenne	-11.1039
▁Watt	-11.1085
roughly	-11.111
▁styl	-11.1114
▁tag	-11.1215
▁ratio	-11.122
General	-11.1231
▁manufacture	-11.1243
▁Command	-11.1256
▁respond	-11.1257
▁wound	-11.1257
ault	-11.1269
stock	-11.1298
▁nucle	-11.132
▁cooperat	-11.1321
▁gentle	-11.1323
tribution	-11.1324
▁enthusiast	-11.1329
utonomous	-11.1329
▁Admiral	-11.1329
▁Communications	-11.1329
▁Glasgow	-11.1329
▁Television	-11.1329
▁Ukraine	-11.1329
▁acoustic	-11.1329
▁ceremonial	-11.1329
▁complement	-11.1329
▁efficient	-11.1329
▁empire	-11.1329
▁flourish	-11.1329
▁grandmother	-11.1329
▁impressive	-11.1329
▁libraries	-11.1329
▁phenomenon	-11.1329
▁strategic	-11.1329
▁suspension	-11.1329
▁temporarily	-11.1329
▁transmitter	-11.1329
▁Anglican	-11.1329
▁enterprise	-11.1329
▁obstacle	-11.1329
▁sacred	-11.1329
compatible	-11.1329
▁Patriot	-11.1329
▁expense	-11.1329
▁peasant	-11.1329
▁pocket	-11.1329
▁wrestle	-11.1329
▁Twenty	-11.1329
▁discharge	-11.1329
▁grammar	-11.1329
▁labour	-11.1329
▁Abraham	-11.1329
▁Rhode	-11.1329
▁Alaska	-11.1329
▁Macedonia	-11.1329
▁Chairman	-11.1329
▁grape	-11.1329
▁sparse	-11.1329
▁Vincent	-11.1329
▁throne	-11.133
▁Control	-11.133
▁Essex	-11.133
▁Female	-11.133
▁Hebrew	-11.133
▁antenna	-11.133
▁exceed	-11.133
▁chlor	-11.133
▁merger	-11.133
▁pianist	-11.133
▁stain	-11.133
▁Florence	-11.1331
▁birthplace	-11.1331
▁structural	-11.1331
▁flora	-11.1331
▁Cycl	-11.1332
▁Spirit	-11.1332
▁aviation	-11.1332
▁sidewalk	-11.1332
politan	-11.1333
▁cloud	-11.1333
▁compress	-11.1333
▁Otto	-11.1333
▁interface	-11.1333
▁basin	-11.1333
▁activat	-11.1333
▁municipalities	-11.1334
▁Indeed	-11.1334
▁legendary	-11.1334
▁Outside	-11.1334
▁addict	-11.1335
▁Jerry	-11.1335
▁verb	-11.1335
▁shipping	-11.1336
▁Terry	-11.1337
▁Organ	-11.1338
▁corps	-11.1339
▁pump	-11.1341
▁sword	-11.1341
▁upgrade	-11.1341
▁fluid	-11.1345
▁fool	-11.1346
▁woodland	-11.1351
▁conductor	-11.1353
▁bitter	-11.1354
▁Story	-11.1354
▁proud	-11.1356
▁Wai	-11.136
▁assert	-11.137
▁Never	-11.1372
▁dair	-11.1376
eppe	-11.1379
▁automat	-11.1379
▁geographical	-11.1388
▁Kenya	-11.1397
▁Gang	-11.1398
▁oversee	-11.1402
▁spare	-11.1406
▁flame	-11.1445
burgh	-11.1477
high	-11.1496
alytic	-11.1498
▁Doug	-11.1546
▁dye	-11.1659
speaking	-11.1684
guard	-11.1685
season	-11.1687
release	-11.1687
foot	-11.1697
father	-11.1709
▁quart	-11.1719
▁translate	-11.1737
▁exclusive	-11.1746
▁habit	-11.1748
▁generate	-11.1755
Dyna	-11.1756
▁circum	-11.1784
▁Leicester	-11.1784
▁Adelaide	-11.1784
▁Armstrong	-11.1784
▁Associate	-11.1784
▁Bachelor	-11.1784
▁Junction	-11.1784
▁Memphis	-11.1784
▁Ralph	-11.1784
▁Saskatchewan	-11.1784
▁Ultimately	-11.1784
▁afraid	-11.1784
▁artillery	-11.1784
▁certificate	-11.1784
▁conviction	-11.1784
▁diamond	-11.1784
▁emphasis	-11.1784
▁excavation	-11.1784
▁forbidden	-11.1784
▁graduating	-11.1784
▁hybrid	-11.1784
▁imprisonment	-11.1784
▁neutral	-11.1784
▁subsidiary	-11.1784
▁Advance	-11.1784
▁Belfast	-11.1784
▁Cricket	-11.1784
▁exclude	-11.1784
▁exhaust	-11.1784
▁relocated	-11.1784
▁Jamaica	-11.1784
▁apologize	-11.1784
▁legacy	-11.1784
▁Clinton	-11.1784
▁pronounced	-11.1784
▁Specific	-11.1784
▁wreck	-11.1784
▁Incorporated	-11.1784
▁swamp	-11.1784
▁invasion	-11.1784
▁abroad	-11.1784
▁Sierra	-11.1784
▁workshops	-11.1784
▁Snow	-11.1784
▁councillor	-11.1784
▁garage	-11.1784
▁harsh	-11.1784
▁assembled	-11.1785
promising	-11.1785
▁cabin	-11.1785
▁announcement	-11.1785
▁vibra	-11.1785
▁criticised	-11.1785
▁horizontal	-11.1785
▁compact	-11.1785
▁Bavaria	-11.1786
▁creek	-11.1786
▁conversion	-11.1787
▁chess	-11.1787
▁grace	-11.1787
▁knight	-11.1788
hook	-11.1788
▁tongue	-11.1788
▁Panama	-11.1788
▁playground	-11.179
▁lifestyle	-11.179
▁initiative	-11.1791
▁Saudi	-11.1791
feld	-11.1793
▁Monday	-11.1793
▁Julie	-11.1794
▁blog	-11.1795
▁wore	-11.1796
▁Kingston	-11.1797
▁Archive	-11.1798
▁marsh	-11.1799
▁fever	-11.1803
▁slid	-11.1805
▁mansion	-11.1806
▁monk	-11.1818
front	-11.1824
▁duck	-11.1826
rrows	-11.1826
▁bias	-11.1828
▁rope	-11.184
▁mur	-11.1864
▁Stoke	-11.1878
▁limitation	-11.1888
▁wheat	-11.1908
quality	-11.1916
ovsky	-11.196
▁Batt	-11.1995
▁satir	-11.2012
▁determin	-11.2014
▁alleged	-11.2093
▁Gill	-11.2113
▁geo	-11.2156
specific	-11.2161
founder	-11.2163
dimensional	-11.2182
▁identifie	-11.2213
▁quit	-11.2229
productive	-11.2235
▁Commun	-11.2243
▁badge	-11.225
▁Construction	-11.226
▁Jerusalem	-11.226
▁Nowadays	-11.226
▁Orchestra	-11.226
▁Raymond	-11.226
▁Roosevelt	-11.226
▁Stockholm	-11.226
▁accommodate	-11.226
▁accurate	-11.226
▁administrator	-11.226
▁artifacts	-11.226
▁casualties	-11.226
▁destruction	-11.226
▁dynasty	-11.226
▁exposure	-11.226
▁geometry	-11.226
▁harbour	-11.226
▁inaugura	-11.226
▁prototype	-11.226
▁pseudonym	-11.226
▁quantum	-11.226
▁sovereign	-11.226
▁tributaries	-11.226
▁volleyball	-11.226
Between	-11.226
▁Edmund	-11.226
▁Language	-11.226
▁automobile	-11.226
▁currency	-11.226
▁depression	-11.226
▁peninsula	-11.226
▁refuses	-11.226
▁Cabinet	-11.226
▁Czech	-11.226
▁commerce	-11.226
▁Simpson	-11.226
▁Arlington	-11.226
▁forgotten	-11.226
egitimate	-11.226
▁Wonder	-11.226
▁module	-11.226
▁Fifth	-11.226
▁Rhine	-11.226
▁email	-11.226
▁statistics	-11.226
▁spawn	-11.226
▁colony	-11.226
▁punk	-11.226
▁worst	-11.226
▁racial	-11.226
▁Desert	-11.226
▁sank	-11.226
▁imperial	-11.226
▁ambition	-11.226
▁Everything	-11.226
▁Legion	-11.226
▁virus	-11.226
▁feud	-11.2261
▁View	-11.2261
▁regain	-11.2261
▁plead	-11.2261
▁distant	-11.2261
▁Cornwall	-11.2261
▁invitation	-11.2261
▁stack	-11.2261
▁ascend	-11.2261
▁watershed	-11.2261
▁fortress	-11.2261
▁limb	-11.2261
▁shade	-11.2262
▁faint	-11.2262
▁shrub	-11.2262
▁Madison	-11.2262
▁queen	-11.2262
▁mutual	-11.2263
▁lodge	-11.2263
▁tribal	-11.2263
▁chip	-11.2263
▁spacecraft	-11.2264
▁punishment	-11.2264
width	-11.2264
▁correspondence	-11.2264
▁bolt	-11.2265
▁separation	-11.2265
▁Meyer	-11.2265
▁Lynn	-11.2265
▁rising	-11.2266
▁Glas	-11.2267
▁Otherwise	-11.2267
▁nut	-11.2268
▁factories	-11.2268
▁Denver	-11.2269
▁textile	-11.2269
▁Blake	-11.2271
partisan	-11.2271
▁filmmaker	-11.2271
▁wake	-11.2274
▁attendance	-11.2274
▁Morrison	-11.2277
▁brake	-11.2277
▁clay	-11.2279
▁Herbert	-11.228
▁avid	-11.2281
▁beaten	-11.2282
▁farmland	-11.2284
▁Ferry	-11.2287
Pierre	-11.2297
▁Singh	-11.2306
thermal	-11.2319
▁Self	-11.2319
▁struggl	-11.2334
assembl	-11.2337
▁dorm	-11.2338
▁Drum	-11.234
▁macro	-11.2378
▁Edge	-11.2439
winning	-11.245
limina	-11.2457
▁Cuba	-11.2475
▁improv	-11.2599
brand	-11.2653
electric	-11.2661
white	-11.2662
quarter	-11.2662
shirt	-11.2668
▁reject	-11.2688
south	-11.2689
▁threaten	-11.2716
▁apparent	-11.2721
nky	-11.2722
▁Hugh	-11.2754
uperintendent	-11.276
▁Alternative	-11.276
▁Amsterdam	-11.276
▁Byzantine	-11.276
▁Chronicle	-11.276
▁Diamond	-11.276
▁Dorothy	-11.276
▁Milwaukee	-11.276
▁Nicholas	-11.276
▁Security	-11.276
▁Sullivan	-11.276
▁Uganda	-11.276
▁Would	-11.276
▁ambassador	-11.276
▁approval	-11.276
▁calendar	-11.276
▁ceramic	-11.276
▁derivative	-11.276
▁diocese	-11.276
▁encompasse	-11.276
▁evident	-11.276
▁horror	-11.276
▁hypothesis	-11.276
▁membrane	-11.276
▁narrative	-11.276
▁portfolio	-11.276
▁practis	-11.276
▁proximity	-11.276
▁rectangular	-11.276
▁subdivided	-11.276
▁survival	-11.276
▁tremendous	-11.276
▁Defense	-11.276
▁Political	-11.276
▁Visitor	-11.276
▁happi	-11.276
▁linguistic	-11.276
▁Catherine	-11.276
▁Grammar	-11.276
▁clinical	-11.276
▁constrain	-11.276
▁innovation	-11.276
▁romance	-11.276
▁secular	-11.276
▁wilderness	-11.276
▁Eugene	-11.276
▁Challenge	-11.276
▁ninth	-11.276
▁Caledonia	-11.276
▁congress	-11.276
▁penalty	-11.276
▁Stanford	-11.276
▁Portsmouth	-11.276
▁salmon	-11.276
▁Editor	-11.276
▁Sultan	-11.276
▁prestig	-11.276
▁wagon	-11.276
▁specifie	-11.276
▁Cameron	-11.276
▁bundle	-11.276
▁infinite	-11.276
▁logging	-11.276
▁Ernest	-11.276
▁trout	-11.276
▁cheap	-11.2761
▁Caesar	-11.2761
▁barrel	-11.2761
▁saving	-11.2761
▁acknowledg	-11.2761
▁consort	-11.2761
▁telescope	-11.2761
▁berries	-11.2761
▁investor	-11.2761
▁riot	-11.2762
▁Sky	-11.2762
▁psychology	-11.2762
▁marble	-11.2762
▁hail	-11.2762
▁Bureau	-11.2763
▁Celia	-11.2764
▁chest	-11.2764
▁alloy	-11.2764
▁Montana	-11.2764
▁Nathan	-11.2764
▁offshore	-11.2764
▁Carroll	-11.2764
▁torture	-11.2764
▁Vermont	-11.2765
▁circulation	-11.2765
▁defect	-11.2765
▁Folk	-11.2766
▁Rangers	-11.2766
▁diplomatic	-11.2766
▁Harbor	-11.2767
▁Marvel	-11.2767
▁gentleman	-11.2769
▁Preston	-11.2769
▁humid	-11.2769
▁slate	-11.277
▁dying	-11.277
▁Flor	-11.2771
▁Lucas	-11.2771
▁crush	-11.2772
▁drill	-11.2774
▁Food	-11.2776
▁upset	-11.2776
▁laser	-11.278
▁sorry	-11.2782
▁storyline	-11.2788
▁Sister	-11.2799
Script	-11.2808
▁crack	-11.2825
produced	-11.2827
▁urg	-11.2829
atomic	-11.2847
▁Arabia	-11.2881
▁authentic	-11.289
▁Photo	-11.3115
ordinat	-11.3122
spire	-11.3126
logical	-11.3145
generation	-11.3188
South	-11.3189
sexual	-11.3189
three	-11.3191
grass	-11.3192
elected	-11.3197
▁accomplish	-11.3214
▁thorough	-11.3224
▁attribute	-11.3239
▁Final	-11.3249
ometric	-11.325
East	-11.3258
▁owe	-11.3258
▁apprentic	-11.3286
▁contradict	-11.3286
imbabwe	-11.3286
▁Afghanistan	-11.3286
▁Buddhist	-11.3286
▁Columbus	-11.3286
▁Digital	-11.3286
▁Hungarian	-11.3286
▁Independence	-11.3286
▁Jonathan	-11.3286
▁Trinidad	-11.3286
▁abilities	-11.3286
▁abundant	-11.3286
▁corruption	-11.3286
▁ecosystem	-11.3286
▁exploit	-11.3286
▁explosive	-11.3286
▁flavour	-11.3286
▁gymnast	-11.3286
▁luxury	-11.3286
▁microphone	-11.3286
▁necessarily	-11.3286
▁privilege	-11.3286
▁protagonist	-11.3286
▁regulator	-11.3286
▁significance	-11.3286
▁sleeve	-11.3286
▁synthesis	-11.3286
▁unanimous	-11.3286
▁uncommon	-11.3286
▁vulnerable	-11.3286
▁Meadow	-11.3286
▁Medicine	-11.3286
▁Resident	-11.3286
▁autumn	-11.3286
▁cigarette	-11.3286
▁denomination	-11.3286
▁exempt	-11.3286
▁percentage	-11.3286
▁qualities	-11.3286
▁vowel	-11.3286
▁Nashville	-11.3286
▁Thailand	-11.3286
▁amendment	-11.3286
▁hymn	-11.3286
▁passionate	-11.3286
▁powder	-11.3286
▁skull	-11.3286
▁triangle	-11.3286
▁universe	-11.3286
▁Harbour	-11.3286
▁immun	-11.3286
▁plague	-11.3286
▁plaque	-11.3286
▁computing	-11.3286
▁fraud	-11.3286
▁resignation	-11.3286
▁Access	-11.3287
▁Wallace	-11.3287
▁commence	-11.3287
▁disbanded	-11.3287
▁rebellion	-11.3287
▁sauce	-11.3287
▁vinyl	-11.3287
▁breast	-11.3287
▁Number	-11.3287
▁poison	-11.3287
▁tomorrow	-11.3287
▁Celtic	-11.3287
▁Surrey	-11.3287
▁helmet	-11.3287
▁smell	-11.3287
▁Recently	-11.3287
▁asteroid	-11.3287
▁transcript	-11.3287
▁Falcon	-11.3287
▁Pearl	-11.3287
▁reliable	-11.3287
▁Cliff	-11.3287
▁hurt	-11.3287
▁insignia	-11.3287
▁Iceland	-11.3287
▁serial	-11.3287
▁Manager	-11.3287
atrical	-11.3287
▁matrix	-11.3287
▁readily	-11.3287
▁Bedford	-11.3287
▁altar	-11.3287
▁meteor	-11.3287
▁revolve	-11.3287
▁paved	-11.3287
▁flesh	-11.3287
▁wildlife	-11.3287
▁Scots	-11.3287
▁showcase	-11.3288
▁sunset	-11.3288
▁coordinate	-11.3288
ordinary	-11.3288
▁afford	-11.3288
▁Facult	-11.3288
▁Hamburg	-11.3289
▁admit	-11.329
martial	-11.329
▁persist	-11.3291
▁Future	-11.3291
▁everywhere	-11.3292
▁boost	-11.3292
▁Estonia	-11.3292
▁shrine	-11.3292
▁unrelated	-11.3293
▁instructor	-11.3293
▁tutor	-11.3294
▁funny	-11.3294
▁PhD	-11.3295
▁implicat	-11.3295
▁Fitz	-11.3296
▁cooperation	-11.3297
▁Yard	-11.3297
scape	-11.3297
▁alumn	-11.3298
▁terminate	-11.3298
▁sociolog	-11.3299
▁Turner	-11.3301
▁tiny	-11.3301
▁Guardian	-11.3301
▁ballot	-11.3303
▁Ground	-11.3303
▁Ellis	-11.3305
Yankee	-11.3306
version	-11.3354
▁Sign	-11.3359
mantle	-11.3365
emoval	-11.3386
▁recess	-11.3389
plasm	-11.3414
▁Franco	-11.3432
▁scrap	-11.3439
▁bibl	-11.3483
Sacr	-11.3485
hampton	-11.3495
▁psych	-11.3523
Glad	-11.3557
▁challeng	-11.3652
related	-11.3703
▁Close	-11.3725
establish	-11.3743
screen	-11.3743
writing	-11.3744
court	-11.3746
▁recognize	-11.3795
▁Current	-11.3803
▁hire	-11.3804
▁viol	-11.3833
▁entertain	-11.3838
▁Argent	-11.3841
▁necessit	-11.3842
▁Ambassador	-11.3842
▁Aurora	-11.3842
▁Azerbaijan	-11.3842
▁Chelsea	-11.3842
▁Guatemala	-11.3842
▁Malcolm	-11.3842
▁Shakespeare	-11.3842
▁Software	-11.3842
▁Venezuela	-11.3842
▁aluminum	-11.3842
▁appreciat	-11.3842
▁astronomy	-11.3842
▁autonomy	-11.3842
▁brigade	-11.3842
▁commitment	-11.3842
▁consumption	-11.3842
▁elevated	-11.3842
▁endangered	-11.3842
▁incumbent	-11.3842
▁integral	-11.3842
▁pregnancy	-11.3842
▁pregnant	-11.3842
▁renovated	-11.3842
▁saxophone	-11.3842
▁supermarket	-11.3842
▁trumpet	-11.3842
▁velocity	-11.3842
▁vicinity	-11.3842
ollegiate	-11.3842
▁Berkeley	-11.3842
▁Broadcasting	-11.3842
▁Stuart	-11.3842
▁accompany	-11.3842
▁breakfast	-11.3842
▁friction	-11.3842
▁knife	-11.3842
▁nursing	-11.3842
▁occupy	-11.3842
▁Lebanon	-11.3842
▁Territory	-11.3842
▁disrupt	-11.3842
▁indicator	-11.3842
▁competitor	-11.3842
▁smiling	-11.3842
▁Capital	-11.3842
▁Cardiff	-11.3842
▁Computer	-11.3842
▁Newcastle	-11.3842
▁hobby	-11.3842
▁impressed	-11.3842
▁incredibl	-11.3842
▁lunch	-11.3842
▁motorcycle	-11.3842
▁spectrum	-11.3842
▁Wagner	-11.3842
▁Olympia	-11.3842
▁Shadow	-11.3842
▁epithet	-11.3842
▁tobacco	-11.3842
▁Bradford	-11.3842
▁medication	-11.3842
▁pigment	-11.3842
▁Album	-11.3842
▁Finance	-11.3842
▁Rapid	-11.3842
▁auction	-11.3842
▁Monroe	-11.3842
▁senator	-11.3842
▁pillar	-11.3842
▁Clement	-11.3842
▁mystery	-11.3842
▁relax	-11.3842
▁Legend	-11.3842
▁Bueno	-11.3843
▁Curtis	-11.3843
▁manipulat	-11.3843
zhou	-11.3843
▁animation	-11.3843
▁Norwich	-11.3843
▁Vegas	-11.3843
▁hull	-11.3843
▁strain	-11.3843
▁parameter	-11.3843
▁tetra	-11.3843
▁excelle	-11.3843
▁Oscar	-11.3844
▁Trophy	-11.3844
▁admission	-11.3844
▁Freedom	-11.3844
▁accent	-11.3844
▁freshwater	-11.3844
▁Albania	-11.3844
▁stance	-11.3844
▁keen	-11.3845
▁livestock	-11.3845
netheless	-11.3845
▁Downtown	-11.3846
▁Wool	-11.3846
▁guess	-11.3846
▁revolutionary	-11.3847
▁Bryan	-11.3848
▁Adult	-11.3848
▁engagement	-11.3848
▁commentator	-11.3848
▁patern	-11.3848
▁fault	-11.385
▁Edgar	-11.385
▁Hanover	-11.3851
▁luck	-11.3851
▁font	-11.3853
piscopa	-11.3854
▁oval	-11.3854
▁lean	-11.3855
▁probabili	-11.3856
▁Deep	-11.3856
▁mud	-11.3859
nterior	-11.3862
▁quadr	-11.3873
▁hetero	-11.3929
describ	-11.3933
llegedly	-11.4042
mbria	-11.4057
cession	-11.4117
ncient	-11.4304
Super	-11.4332
system	-11.4332
▁induce	-11.4372
▁engage	-11.4377
▁retire	-11.438
▁suppose	-11.4383
▁communicat	-11.4409
▁Direct	-11.4412
▁Method	-11.4422
▁radiat	-11.4422
▁introduc	-11.4428
▁comfort	-11.4428
▁regime	-11.4428
nfluence	-11.443
welve	-11.443
▁patriot	-11.443
defunct	-11.443
▁Brussels	-11.443
▁Czechoslovak	-11.443
▁Edmonton	-11.443
▁Individual	-11.443
▁Performance	-11.443
▁Presbyterian	-11.443
▁Principal	-11.443
▁Thursday	-11.443
▁absorbed	-11.443
▁arcade	-11.443
▁availability	-11.443
▁cathedral	-11.443
▁certified	-11.443
▁compensation	-11.443
▁curriculum	-11.443
▁democracy	-11.443
▁dialogue	-11.443
▁dissertation	-11.443
▁dissolved	-11.443
▁elephant	-11.443
▁emphasize	-11.443
▁enclosed	-11.443
▁entrepreneur	-11.443
▁flexible	-11.443
▁fracture	-11.443
▁garrison	-11.443
▁grandparents	-11.443
▁injection	-11.443
▁irrigation	-11.443
▁mammals	-11.443
▁mathematician	-11.443
▁mechanics	-11.443
▁militia	-11.443
▁oxygen	-11.443
▁phenomena	-11.443
▁philosophical	-11.443
▁practicing	-11.443
▁shadow	-11.443
▁strategies	-11.443
▁territorial	-11.443
▁unhappy	-11.443
▁unofficial	-11.443
▁utility	-11.443
▁Attorney	-11.443
▁Fleming	-11.443
▁Scotia	-11.443
▁anticipat	-11.443
▁dispatch	-11.443
▁mysterious	-11.443
▁Lexington	-11.443
▁adjoin	-11.443
▁facade	-11.443
▁ministry	-11.443
▁qualification	-11.443
▁Sussex	-11.443
▁Thereafter	-11.443
▁database	-11.443
▁Circle	-11.443
▁Fraser	-11.443
▁ceiling	-11.443
▁scandal	-11.443
▁throat	-11.443
▁warfare	-11.443
▁consumed	-11.443
▁Defence	-11.443
▁Liberty	-11.443
▁Calgary	-11.443
▁absence	-11.443
▁erosion	-11.443
▁Institution	-11.443
▁comprehensive	-11.443
▁Davies	-11.443
▁Hindi	-11.443
▁psychiatri	-11.443
▁eagle	-11.443
▁Jesuit	-11.443
▁Harvey	-11.443
▁Course	-11.4431
▁Dominic	-11.4431
▁duration	-11.4431
▁Concord	-11.4431
▁extant	-11.4431
▁Lodge	-11.4431
▁Woman	-11.4431
▁default	-11.4431
▁clash	-11.4431
▁revised	-11.4431
▁Machine	-11.4431
▁Tasmania	-11.4431
▁disabled	-11.4431
▁sharing	-11.4431
▁hiding	-11.4431
▁wool	-11.4431
▁pretend	-11.4431
▁skirt	-11.4431
▁Warsaw	-11.4431
▁wrapp	-11.4431
▁inventor	-11.4431
▁timing	-11.4431
▁abdom	-11.4431
▁earning	-11.4431
▁invented	-11.4431
▁Organization	-11.4432
▁annex	-11.4432
▁olive	-11.4432
▁Urban	-11.4433
▁wonderful	-11.4433
▁Latvia	-11.4433
▁leak	-11.4434
▁Cedar	-11.4434
▁Vernon	-11.4434
▁embrace	-11.4434
▁decompos	-11.4435
▁juice	-11.4435
▁Heaven	-11.4435
▁halt	-11.4436
▁vault	-11.4436
▁Tropic	-11.4436
▁blade	-11.4436
▁Clear	-11.4437
▁lung	-11.4437
▁emission	-11.4438
▁tension	-11.4441
▁debt	-11.4441
▁larva	-11.4442
▁embryo	-11.4446
▁melt	-11.4459
▁Ranch	-11.4467
▁McN	-11.4592
eign	-11.4779
Ultra	-11.478
Blood	-11.4834
▁releas	-11.4858
resistant	-11.4862
drop	-11.4911
function	-11.4956
correct	-11.4956
course	-11.4958
▁harmoni	-11.4971
▁settle	-11.4982
frame	-11.4984
▁eliminate	-11.5008
▁Original	-11.5016
▁punish	-11.505
▁basket	-11.5055
ccelerated	-11.5055
kindergarten	-11.5055
▁Aberdeen	-11.5055
▁Antwerp	-11.5055
▁Buddhism	-11.5055
▁Campaign	-11.5055
▁Chancellor	-11.5055
▁Citizen	-11.5055
▁Crystal	-11.5055
▁Floyd	-11.5055
▁Lancaster	-11.5055
▁Muhammad	-11.5055
▁Multiple	-11.5055
▁Pembroke	-11.5055
▁Recreation	-11.5055
▁Reynolds	-11.5055
▁Shanghai	-11.5055
▁Suffolk	-11.5055
▁Yugoslav	-11.5055
▁abstract	-11.5055
▁accommodation	-11.5055
▁accuracy	-11.5055
▁conjecture	-11.5055
▁consequent	-11.5055
▁convenient	-11.5055
▁decorative	-11.5055
▁deliberate	-11.5055
▁democratic	-11.5055
▁deteriorate	-11.5055
▁eligible	-11.5055
▁fantasy	-11.5055
▁fascinat	-11.5055
▁furniture	-11.5055
▁nationwide	-11.5055
▁nervous	-11.5055
▁overwhelming	-11.5055
▁pleasure	-11.5055
▁reconstructed	-11.5055
▁reconstruction	-11.5055
▁remarried	-11.5055
▁repertoire	-11.5055
▁simultaneously	-11.5055
▁terrible	-11.5055
▁trunk	-11.5055
▁twentieth	-11.5055
▁vegetation	-11.5055
▁virtue	-11.5055
▁volcano	-11.5055
▁voltage	-11.5055
resumably	-11.5055
▁Friedrich	-11.5055
▁Leopold	-11.5055
▁Linux	-11.5055
▁Mumbai	-11.5055
▁Spencer	-11.5055
▁Windsor	-11.5055
▁Worcester	-11.5055
▁intercept	-11.5055
▁offensive	-11.5055
▁poverty	-11.5055
▁recurring	-11.5055
▁striking	-11.5055
▁Bohemia	-11.5055
▁Ricardo	-11.5055
▁coincide	-11.5055
▁pollution	-11.5055
▁Lutheran	-11.5055
▁Private	-11.5055
▁Yellow	-11.5055
▁delegate	-11.5055
▁Elliot	-11.5055
▁Grammy	-11.5055
▁census	-11.5055
▁ensuing	-11.5055
▁revival	-11.5055
▁temperate	-11.5055
▁deserve	-11.5055
▁lobby	-11.5055
▁statistical	-11.5055
▁truly	-11.5055
▁drunk	-11.5055
▁perceive	-11.5055
▁twist	-11.5055
▁Monument	-11.5055
▁siege	-11.5055
▁thrill	-11.5055
▁density	-11.5055
▁scenic	-11.5055
▁Observ	-11.5055
▁capsule	-11.5055
▁gravity	-11.5055
▁shark	-11.5055
▁Hitler	-11.5055
▁flew	-11.5055
▁Kappa	-11.5055
▁monster	-11.5055
▁terrace	-11.5055
▁singular	-11.5055
▁confined	-11.5055
▁cereb	-11.5055
▁mortal	-11.5055
▁Gaelic	-11.5056
▁Consider	-11.5056
▁geography	-11.5056
▁regret	-11.5056
▁Apollo	-11.5056
▁Weather	-11.5056
▁punch	-11.5056
▁binary	-11.5056
▁implies	-11.5056
▁frozen	-11.5056
▁diversity	-11.5056
▁cyclist	-11.5056
vocation	-11.5056
▁sensor	-11.5056
▁tackle	-11.5056
▁Thames	-11.5056
▁sandwich	-11.5056
▁blast	-11.5056
▁imitat	-11.5056
▁postgraduate	-11.5056
▁ultra	-11.5057
▁Leslie	-11.5057
▁ruling	-11.5057
▁spider	-11.5057
▁trait	-11.5057
▁Assistan	-11.5057
▁blond	-11.5057
▁Klein	-11.5057
▁dorsal	-11.5057
▁battery	-11.5057
▁Bosnia	-11.5057
thorpe	-11.5057
▁Movie	-11.5058
▁tumor	-11.5058
▁cycling	-11.5058
▁folded	-11.5058
▁expel	-11.5058
▁remind	-11.5058
▁crypt	-11.5058
▁Algeria	-11.5058
▁condens	-11.5058
▁leap	-11.5059
▁permission	-11.5059
▁Normal	-11.5059
▁balloon	-11.5059
▁jaw	-11.506
▁Rabbi	-11.506
▁coined	-11.5061
▁Gonz	-11.5067
▁palm	-11.5079
▁Dodge	-11.5084
Break	-11.5136
cellular	-11.5211
lateral	-11.5269
ambia	-11.5275
Psycho	-11.5372
crest	-11.5383
putting	-11.5463
subscribe	-11.5589
Time	-11.5623
historic	-11.5623
fiction	-11.5623
president	-11.5623
author	-11.5623
published	-11.5623
science	-11.5626
credit	-11.5633
phonic	-11.5634
fluent	-11.5649
▁legislati	-11.5713
▁pronoun	-11.5722
cliffe	-11.5722
stronomical	-11.5722
sympathetic	-11.5722
▁Cumberland	-11.5722
▁Environment	-11.5722
▁Exchange	-11.5722
▁Explor	-11.5722
▁Giovanni	-11.5722
▁Glacier	-11.5722
▁Important	-11.5722
▁Industry	-11.5722
▁McCarthy	-11.5722
▁Providence	-11.5722
▁Reservoir	-11.5722
▁Symphony	-11.5722
▁Wyoming	-11.5722
▁aesthetic	-11.5722
▁affiliation	-11.5722
▁approximation	-11.5722
▁confident	-11.5722
▁corridor	-11.5722
▁criteria	-11.5722
▁etymology	-11.5722
▁explode	-11.5722
▁galleries	-11.5722
▁gallery	-11.5722
▁genuine	-11.5722
▁glucose	-11.5722
▁grocery	-11.5722
▁leisure	-11.5722
▁obscure	-11.5722
▁ourselves	-11.5722
▁physicist	-11.5722
▁pronunciation	-11.5722
▁resolved	-11.5722
▁spectacular	-11.5722
▁sunglasses	-11.5722
▁synthesiz	-11.5722
▁unpopular	-11.5722
▁Circuit	-11.5722
▁Jenkins	-11.5722
▁Norfolk	-11.5722
▁Punjab	-11.5722
▁Slovenia	-11.5722
▁Thousand	-11.5722
▁complication	-11.5722
▁elevator	-11.5722
▁impression	-11.5722
▁lizard	-11.5722
▁monsoon	-11.5722
▁polynomial	-11.5722
▁prevalent	-11.5722
▁ribbon	-11.5722
▁submitted	-11.5722
▁vendors	-11.5722
▁verdict	-11.5722
▁Brighton	-11.5722
▁Dickinson	-11.5722
▁kidney	-11.5722
▁shrimp	-11.5722
▁syndicate	-11.5722
▁turret	-11.5722
▁Google	-11.5722
▁sediment	-11.5722
▁swallow	-11.5722
▁analyze	-11.5722
▁batteries	-11.5722
▁discourage	-11.5722
▁judicia	-11.5722
▁picnic	-11.5722
▁Benedict	-11.5722
▁Buckingham	-11.5722
▁cogniti	-11.5722
▁Nixon	-11.5722
▁Sweet	-11.5722
▁Waterloo	-11.5722
▁Julius	-11.5722
▁hollow	-11.5722
▁conquest	-11.5722
▁consonant	-11.5722
▁fauna	-11.5722
▁traverse	-11.5722
▁Baroque	-11.5722
▁caution	-11.5722
▁monkeys	-11.5722
▁Advisor	-11.5722
▁Isaac	-11.5722
▁recipe	-11.5722
▁canceled	-11.5722
clamation	-11.5722
▁leather	-11.5722
▁devastat	-11.5722
▁Double	-11.5722
▁abortion	-11.5722
▁skating	-11.5722
▁Bailey	-11.5722
▁licence	-11.5722
▁spoil	-11.5722
▁stint	-11.5722
▁editing	-11.5722
▁Exeter	-11.5722
▁reputed	-11.5722
▁liberat	-11.5722
▁beneath	-11.5722
▁casino	-11.5722
▁decay	-11.5722
▁extraordinary	-11.5723
▁copyright	-11.5723
▁teens	-11.5723
▁spear	-11.5723
▁Newark	-11.5723
▁outstanding	-11.5723
▁steady	-11.5723
▁Guild	-11.5723
▁psychological	-11.5723
▁commute	-11.5723
▁Emily	-11.5723
▁stake	-11.5723
▁Maurice	-11.5724
▁Stefan	-11.5724
▁attain	-11.5728
▁emblem	-11.5729
utstanding	-11.5739
▁lease	-11.5743
reatment	-11.5743
Connor	-11.5748
region	-11.5749
▁Regula	-11.5755
▁copi	-11.5784
▁Austr	-11.5821
▁synonym	-11.5834
Terra	-11.5853
structure	-11.591
▁hydr	-11.5928
▁Student	-11.5988
▁resource	-11.5988
▁pyr	-11.5993
▁decid	-11.6063
Franc	-11.6072
▁arriv	-11.6104
connected	-11.6241
▁zoo	-11.6333
President	-11.6337
Music	-11.6338
written	-11.6338
wrote	-11.6338
growing	-11.6338
girl	-11.6339
first	-11.6339
▁disappear	-11.6364
▁advertis	-11.6367
▁arrange	-11.6381
▁celebrate	-11.6388
▁sculpt	-11.6421
▁conserv	-11.6428
rovincial	-11.6433
mmediately	-11.6436
▁immigrat	-11.6436
▁sporadic	-11.6436
communist	-11.6436
▁Commercial	-11.6436
▁Electronic	-11.6436
▁Ethiopia	-11.6436
▁Geoffrey	-11.6436
▁Griffith	-11.6436
▁Halifax	-11.6436
▁Leipzig	-11.6436
▁Ludwig	-11.6436
▁McDonald	-11.6436
▁Montgomery	-11.6436
▁Occasionally	-11.6436
▁Physical	-11.6436
▁Suddenly	-11.6436
▁abolished	-11.6436
▁aggregate	-11.6436
▁aluminium	-11.6436
▁ammunition	-11.6436
▁browser	-11.6436
▁categoriz	-11.6436
▁cemeteries	-11.6436
▁chocolate	-11.6436
▁choreograph	-11.6436
▁confidence	-11.6436
▁declaration	-11.6436
▁delegation	-11.6436
▁discriminat	-11.6436
▁eject	-11.6436
▁evaluation	-11.6436
▁hobbies	-11.6436
▁hurricane	-11.6436
▁incarnation	-11.6436
▁judgment	-11.6436
▁posthumously	-11.6436
▁practitioner	-11.6436
▁promptly	-11.6436
▁propaganda	-11.6436
▁pyramid	-11.6436
▁refurbished	-11.6436
▁reopened	-11.6436
▁rigorous	-11.6436
▁spontaneous	-11.6436
▁subdivision	-11.6436
▁umbrella	-11.6436
▁Seminary	-11.6436
▁Stirling	-11.6436
▁Wilhelm	-11.6436
▁assessment	-11.6436
▁knives	-11.6436
▁podcast	-11.6436
▁reconcil	-11.6436
▁Continent	-11.6436
▁Pradesh	-11.6436
▁calculation	-11.6436
▁colonies	-11.6436
▁nevertheless	-11.6436
▁translator	-11.6436
▁batsman	-11.6436
▁gauge	-11.6436
▁persuad	-11.6436
▁Bronze	-11.6436
▁Custom	-11.6436
▁Katherine	-11.6436
▁Plymouth	-11.6436
▁potato	-11.6436
▁miracle	-11.6436
▁Amazon	-11.6436
▁censor	-11.6436
▁intensive	-11.6436
▁melody	-11.6436
▁shareholder	-11.6436
▁massacre	-11.6436
▁Archaeolog	-11.6436
▁distress	-11.6436
▁Survey	-11.6436
▁Mobile	-11.6436
▁Bennett	-11.6436
▁trauma	-11.6436
▁rejoin	-11.6436
▁raising	-11.6436
▁Source	-11.6436
▁thrive	-11.6436
▁memoir	-11.6436
▁Gothic	-11.6436
▁expire	-11.6436
▁Continu	-11.6436
▁accredit	-11.6436
▁Buffy	-11.6436
▁Horace	-11.6436
▁Period	-11.6436
▁dictat	-11.6436
▁Mormon	-11.6436
▁notorious	-11.6436
▁Bolivia	-11.6436
soluble	-11.6437
▁Joyce	-11.6437
▁warrior	-11.6437
▁Pioneer	-11.6437
▁abbey	-11.6437
▁blend	-11.6437
▁nominee	-11.6437
▁Dioces	-11.6437
▁Travel	-11.6437
▁Gustav	-11.6437
▁naked	-11.6437
▁hammer	-11.6437
▁stability	-11.6437
▁stunt	-11.6437
▁Could	-11.6437
▁Sigma	-11.6437
▁smart	-11.6437
▁Osborn	-11.6437
▁steering	-11.6437
▁digest	-11.6437
▁rational	-11.6437
▁behave	-11.6437
▁Visual	-11.6438
▁Keep	-11.6438
▁shipped	-11.6438
▁Naples	-11.6438
▁interfere	-11.6438
▁warrant	-11.6439
▁scann	-11.6439
▁coarse	-11.644
glacial	-11.644
▁Winkle	-11.6443
▁adhere	-11.645
▁parasit	-11.6458
▁intervene	-11.6469
▁Hodg	-11.6478
▁cyclo	-11.6486
harmonic	-11.6523
▁reasonabl	-11.6584
▁Process	-11.6584
▁Hutt	-11.6584
▁displac	-11.6633
scribed	-11.6825
dependent	-11.694
▁strap	-11.6947
employment	-11.7105
service	-11.7107
attack	-11.7107
Black	-11.7107
critic	-11.7119
▁dominate	-11.7158
▁declare	-11.7158
▁accuse	-11.7159
▁teenage	-11.717
▁advent	-11.7203
ecogniz	-11.7205
▁Virtual	-11.7205
▁enormous	-11.7205
Discovery	-11.7205
physiological	-11.7205
rguably	-11.7205
surprisingly	-11.7205
▁Beijing	-11.7205
▁Brunswick	-11.7205
▁Conservation	-11.7205
▁Copenhagen	-11.7205
▁Cyprus	-11.7205
▁Ferguson	-11.7205
▁Filipino	-11.7205
▁Fletcher	-11.7205
▁Frankfurt	-11.7205
▁Higgins	-11.7205
▁Holocaust	-11.7205
▁Hopkins	-11.7205
▁Intelligence	-11.7205
▁Kazakhstan	-11.7205
▁Scandinavia	-11.7205
▁Seminole	-11.7205
▁Wednesday	-11.7205
▁accompaniment	-11.7205
▁alignment	-11.7205
▁altogether	-11.7205
▁awkward	-11.7205
▁bamboo	-11.7205
▁capabilities	-11.7205
